{"Ā": 0, "ā": 1, "Ă": 2, "ă": 3, "Ą": 4, "ą": 5, "Ć": 6, "ć": 7, "Ĉ": 8, "ĉ": 9, "Ċ": 10, "ċ": 11, "Č": 12, "č": 13, "Ď": 14, "ď": 15, "Đ": 16, "đ": 17, "Ē": 18, "ē": 19, "Ĕ": 20, "ĕ": 21, "Ė": 22, "ė": 23, "Ę": 24, "ę": 25, "Ě": 26, "ě": 27, "Ĝ": 28, "ĝ": 29, "Ğ": 30, "ğ": 31, "Ġ": 32, "!": 33, "\"": 34, "#": 35, "$": 36, "%": 37, "&": 38, "'": 39, "(": 40, ")": 41, "*": 42, "+": 43, ",": 44, "-": 45, ".": 46, "/": 47, "0": 48, "1": 49, "2": 50, "3": 51, "4": 52, "5": 53, "6": 54, "7": 55, "8": 56, "9": 57, ":": 58, ";": 59, "<": 60, "=": 61, ">": 62, "?": 63, "@": 64, "A": 65, "B": 66, "C": 67, "D": 68, "E": 69, "F": 70, "G": 71, "H": 72, "I": 73, "J": 74, "K": 75, "L": 76, "M": 77, "N": 78, "O": 79, "P": 80, "Q": 81, "R": 82, "S": 83, "T": 84, "U": 85, "V": 86, "W": 87, "X": 88, "Y": 89, "Z": 90, "[": 91, "\\": 92, "]": 93, "^": 94, "_": 95, "`": 96, "a": 97, "b": 98, "c": 99, "d": 100, "e": 101, "f": 102, "g": 103, "h": 104, "i": 105, "j": 106, "k": 107, "l": 108, "m": 109, "n": 110, "o": 111, "p": 112, "q": 113, "r": 114, "s": 115, "t": 116, "u": 117, "v": 118, "w": 119, "x": 120, "y": 121, "z": 122, "{": 123, "|": 124, "}": 125, "~": 126, "ġ": 127, "Ģ": 128, "ģ": 129, "Ĥ": 130, "ĥ": 131, "Ħ": 132, "ħ": 133, "Ĩ": 134, "ĩ": 135, "Ī": 136, "ī": 137, "Ĭ": 138, "ĭ": 139, "Į": 140, "į": 141, "İ": 142, "ı": 143, "Ĳ": 144, "ĳ": 145, "Ĵ": 146, "ĵ": 147, "Ķ": 148, "ķ": 149, "ĸ": 150, "Ĺ": 151, "ĺ": 152, "Ļ": 153, "ļ": 154, "Ľ": 155, "ľ": 156, "Ŀ": 157, "ŀ": 158, "Ł": 159, "ł": 160, "¡": 161, "¢": 162, "£": 163, "¤": 164, "¥": 165, "¦": 166, "§": 167, "¨": 168, "©": 169, "ª": 170, "«": 171, "¬": 172, "Ń": 173, "®": 174, "¯": 175, "°": 176, "±": 177, "²": 178, "³": 179, "´": 180, "µ": 181, "¶": 182, "·": 183, "¸": 184, "¹": 185, "º": 186, "»": 187, "¼": 188, "½": 189, "¾": 190, "¿": 191, "À": 192, "Á": 193, "Â": 194, "Ã": 195, "Ä": 196, "Å": 197, "Æ": 198, "Ç": 199, "È": 200, "É": 201, "Ê": 202, "Ë": 203, "Ì": 204, "Í": 205, "Î": 206, "Ï": 207, "Ð": 208, "Ñ": 209, "Ò": 210, "Ó": 211, "Ô": 212, "Õ": 213, "Ö": 214, "×": 215, "Ø": 216, "Ù": 217, "Ú": 218, "Û": 219, "Ü": 220, "Ý": 221, "Þ": 222, "ß": 223, "à": 224, "á": 225, "â": 226, "ã": 227, "ä": 228, "å": 229, "æ": 230, "ç": 231, "è": 232, "é": 233, "ê": 234, "ë": 235, "ì": 236, "í": 237, "î": 238, "ï": 239, "ð": 240, "ñ": 241, "ò": 242, "ó": 243, "ô": 244, "õ": 245, "ö": 246, "÷": 247, "ø": 248, "ù": 249, "ú": 250, "û": 251, "ü": 252, "ý": 253, "þ": 254, "ÿ": 255, "Ġt": 256, "Ġa": 257, "he": 258, "in": 259, "re": 260, "Ġthe": 261, "on": 262, "er": 263, "Ġs": 264, "Ġw": 265, "at": 266, "Ġo": 267, "en": 268, "Ġc": 269, "it": 270, "is": 271, "an": 272, "or": 273, "Ġb": 274, "es": 275, "ed": 276, "Ġf": 277, "ing": 278, "Ġp": 279, "ou": 280, "Ġan": 281, "al": 282, "Ġto": 283, "ar": 284, "Ġm": 285, "Ġin": 286, "Ġof": 287, "Ġh": 288, "Ġd": 289, "âĢ": 290, "as": 291, "ic": 292, "Ġand": 293, "Ġth": 294, "le": 295, "om": 296, "ion": 297, "ll": 298, "ent": 299, "Ġn": 300, "Ġl": 301, "Ġre": 302, "st": 303, "ve": 304, "Ġe": 305, "ly": 306, "ro": 307, "Ġbe": 308, "Ġg": 309, "id": 310, "ut": 311, "ac": 312, "ot": 313, "ĠT": 314, "ĠI": 315, "Ġthat": 316, "Ġon": 317, "ay": 318, "ĠS": 319, "Ġis": 320, "et": 321, "im": 322, "am": 323, "ad": 324, "ow": 325, "se": 326, "ig": 327, "Ġfor": 328, "âĢĻ": 329, "ĠA": 330, "ver": 331, "ur": 332, "ct": 333, "ld": 334, "ĠC": 335, "Ġu": 336, "Ġst": 337, "Ġy": 338, "Ġit": 339, "Ġhe": 340, "ir": 341, "ation": 342, "ith": 343, "Ġwh": 344, "ĠM": 345, "ce": 346, "ter": 347, "ol": 348, "Ġwe": 349, "il": 350, "Ġwith": 351, "Ġas": 352, "ĠB": 353, "ch": 354, "ill": 355, "nd": 356, "ĠP": 357, "Ġwas": 358, "ers": 359, "Ġyou": 360, "ke": 361, "ĠâĢ": 362, "Ġcon": 363, "Ġde": 364, "Ġr": 365, "her": 366, "if": 367, "ate": 368, "ag": 369, "Ġat": 370, "Ġha": 371, "ĠW": 372, "Ġse": 373, "ĠH": 374, "ore": 375, "Ġpro": 376, "ul": 377, "pp": 378, "ment": 379, "ri": 380, "Ġare": 381, "ĠD": 382, "Ġ1": 383, "us": 384, "est": 385, "ist": 386, "Ġcom": 387, "and": 388, "ĠR": 389, "op": 390, "ain": 391, "ĠThe": 392, "Ġ2": 393, "igh": 394, "rom": 395, "Ġ(": 396, "ort": 397, "od": 398, "Ġne": 399, "ĠF": 400, "um": 401, "un": 402, "Ġex": 403, "res": 404, "ab": 405, "âĢĿ": 406, "Ġnot": 407, "ĠN": 408, "Ġv": 409, "ess": 410, "Ġhave": 411, "ity": 412, "em": 413, "ould": 414, "Ġor": 415, "th": 416, "Ġby": 417, "os": 418, "ant": 419, "ĠG": 420, "ive": 421, "Ġfrom": 422, "Ġal": 423, "el": 424, "'s": 425, "oc": 426, "art": 427, "Ġsu": 428, "ĠL": 429, "Ġsh": 430, "Ġthis": 431, "nt": 432, "qu": 433, "ight": 434, "pe": 435, "ust": 436, "Ġle": 437, "ies": 438, "ĠE": 439, "end": 440, "Ġch": 441, "Ġsa": 442, "out": 443, "Ġab": 444, "The": 445, "all": 446, "ie": 447, "ack": 448, "red": 449, "00": 450, "ĠâĢľ": 451, "Ġhas": 452, "ally": 453, "ĠJ": 454, "Ġpl": 455, "Ġgo": 456, "ard": 457, "iv": 458, "Ġhis": 459, "ome": 460, "ap": 461, "ost": 462, "gh": 463, "ear": 464, "ĠO": 465, "Ġtr": 466, "our": 467, "ast": 468, "Ġj": 469, "ak": 470, "ud": 471, "Ġdo": 472, "Ġthey": 473, "Ġbut": 474, "Ġwor": 475, "rou": 476, "Ġcan": 477, "ge": 478, "Ġwill": 479, "Ġsaid": 480, "Ġwhe": 481, "ĠU": 482, "Ġk": 483, "ich": 484, "Ġall": 485, "ok": 486, "Ġ\"": 487, "ide": 488, "Ġwho": 489, "Ġint": 490, "ame": 491, "ans": 492, "ther": 493, "ial": 494, "Ġout": 495, "ff": 496, "Ġtheir": 497, "ong": 498, "ect": 499, "pl": 500, "ice": 501, "ure": 502, "pt": 503, "one": 504, "Ġmore": 505, "age": 506, "ions": 507, "act": 508, "ike": 509, "Ġme": 510, "Ġup": 511, "ous": 512, "ine": 513, "Ġad": 514, "Ġabout": 515, "ated": 516, "ra": 517, "ber": 518, "Ġone": 519, "Ġwere": 520, "Ġso": 521, "Ġus": 522, "ime": 523, "og": 524, "ĠK": 525, "ep": 526, "ia": 527, "Ġhad": 528, "are": 529, "ub": 530, "cc": 531, "Ġwould": 532, "Ġcl": 533, "Ġ20": 534, "Ġim": 535, "Ġwhich": 536, "ind": 537, "ue": 538, "ake": 539, "Ġcont": 540, "iz": 541, "very": 542, "Ġag": 543, "Ġte": 544, "Ġoff": 545, "Ġcomp": 546, "Ġun": 547, "Ġbeen": 548, "ĠSt": 549, "so": 550, "Ġen": 551, "per": 552, "ign": 553, "au": 554, "ĠTh": 555, "ary": 556, "ace": 557, "Ġyear": 558, "ip": 559, "ew": 560, "Ġlike": 561, "ere": 562, "ven": 563, "ook": 564, "Ġinc": 565, "ays": 566, "Ġman": 567, "Ġpe": 568, "ry": 569, "ose": 570, "Ġres": 571, "able": 572, "ite": 573, "Ġper": 574, "ass": 575, "ord": 576, "Ġsp": 577, "ire": 578, "ĠIn": 579, "Ġother": 580, "mer": 581, "Ġsome": 582, "ile": 583, "ib": 584, "ence": 585, "ople": 586, "Ġ201": 587, "ks": 588, "ations": 589, "Ġover": 590, "ical": 591, "Ġthere": 592, "ress": 593, "Ġdis": 594, "ult": 595, "int": 596, "Ġnew": 597, "own": 598, "Ġalso": 599, "Ġthan": 600, "Ġar": 601, "Ġbec": 602, "ru": 603, "Ġthem": 604, "ance": 605, "ount": 606, "ough": 607, "Ġapp": 608, "port": 609, "ail": 610, "Ġpart": 611, "Ġyour": 612, "Ġwhen": 613, "ree": 614, "Ġwhat": 615, "orm": 616, "ond": 617, "Ġpeople": 618, "fter": 619, "Ġsc": 620, "ĠCh": 621, "av": 622, "ase": 623, "Ġqu": 624, "Ġany": 625, "Ġjust": 626, "Ġits": 627, "ĠY": 628, "ach": 629, "Ġtime": 630, "ĠIt": 631, "Ġkn": 632, "Ġher": 633, "Ġ3": 634, "ens": 635, "lic": 636, "Ġrec": 637, "reat": 638, "Ġmy": 639, "Ġget": 640, "Ġif": 641, "ĠV": 642, "ian": 643, ".âĢĿ": 644, "Ġinto": 645, "ound": 646, "Ġwork": 647, "Ġtw": 648, "irst": 649, "vel": 650, "ction": 651, "Ġno": 652, "du": 653, "ings": 654, "ory": 655, "ick": 656, "ors": 657, "Ġour": 658, "ition": 659, "ident": 660, "ob": 661, "Ġ-": 662, "Ġpre": 663, "ove": 664, "Ġplay": 665, "ang": 666, "ink": 667, "ause": 668, "wn": 669, "te": 670, "amp": 671, "ade": 672, "hing": 673, "ates": 674, "ark": 675, "Ġro": 676, "Ġpol": 677, "Ġshe": 678, "vers": 679, "Ġco": 680, ",âĢĿ": 681, "Ġafter": 682, "ne": 683, "Ġfirst": 684, "Ġcould": 685, "Ġhow": 686, "ĠHe": 687, "Ġ19": 688, "ious": 689, "nder": 690, "ild": 691, "Ġacc": 692, "Ġhim": 693, "aw": 694, "'t": 695, "ons": 696, "Ġpo": 697, "Ġonly": 698, "Ġfe": 699, "Ġatt": 700, "ict": 701, "hed": 702, "Ġpr": 703, "Ġtwo": 704, "rit": 705, "ov": 706, "ish": 707, "Ġcomm": 708, "âĢľ": 709, "form": 710, "Ġspe": 711, "Ġact": 712, "we": 713, "erv": 714, "Ġbl": 715, "ft": 716, "Ġbet": 717, "Ġdec": 718, ".\"": 719, "ning": 720, "Ġback": 721, "Ġmost": 722, "ces": 723, "ood": 724, "ck": 725, "ĠâĢĵ": 726, "Ġam": 727, "oy": 728, "Ġdid": 729, "rough": 730, "iff": 731, "ater": 732, "round": 733, "Ġagain": 734, "Ġ4": 735, "ual": 736, "day": 737, "ise": 738, "Ġunder": 739, "Ġdes": 740, "Ġwant": 741, "ull": 742, "sel": 743, "Ġcons": 744, "ĠâĢĶ": 745, "..": 746, "Ġbecause": 747, "Ġnow": 748, "lud": 749, "ents": 750, "Ġyears": 751, "man": 752, "tern": 753, "ublic": 754, "ec": 755, "Ġneed": 756, "Ġeven": 757, "Ġ$": 758, "iss": 759, "Ġinv": 760, "Ġknow": 761, "ĠWe": 762, "Ġsee": 763, "ments": 764, "ced": 765, "Ġadd": 766, ",\"": 767, "ting": 768, "old": 769, "Ġind": 770, "Ġsec": 771, "fore": 772, "uch": 773, "Ġevery": 774, "urn": 775, "Ġ5": 776, "Ġsupp": 777, "Ġmake": 778, "pect": 779, "ĠUn": 780, "Ġem": 781, "Ġthese": 782, "ock": 783, "oll": 784, "Ġwhere": 785, "ject": 786, "In": 787, "ational": 788, "vern": 789, "xt": 790, "Ġbu": 791, "Ġlook": 792, "Th": 793, "ĠAnd": 794, "oss": 795, "Ġdon": 796, "Ġev": 797, "ump": 798, "ating": 799, "Ġway": 800, "Ġbeing": 801, "Ġrem": 802, "Ġright": 803, "ily": 804, "Ġmay": 805, "ng": 806, "row": 807, "lect": 808, "iew": 809, "Ġthen": 810, "Ġmany": 811, "Ġ[": 812, "Ġdiff": 813, "Ġdef": 814, "ason": 815, "Ġrel": 816, "Ġcall": 817, "ĠBut": 818, "ĠTr": 819, "ont": 820, "ied": 821, "les": 822, "ased": 823, "Ġinclud": 824, "Ġthink": 825, "aking": 826, "Ġreg": 827, ").": 828, "meric": 829, "Ġimp": 830, "Ġthrough": 831, "ath": 832, "ited": 833, "rib": 834, "Ġsy": 835, "Ġshould": 836, "Ġpres": 837, "Ġsay": 838, "ell": 839, "Ġfl": 840, "uring": 841, "Ġlast": 842, "Ġthose": 843, "ower": 844, "Ġvery": 845, "ty": 846, "other": 847, "Ġmuch": 848, "ities": 849, "ific": 850, "Ġstate": 851, "ĠThis": 852, "ative": 853, "Ġshow": 854, "tle": 855, "hen": 856, "Ġbr": 857, "ss": 858, "arg": 859, "Ġwell": 860, "oth": 861, "Ġph": 862, "ĠWh": 863, "Ġcount": 864, "als": 865, "und": 866, "Ġ200": 867, "Ġdoes": 868, "Ġdown": 869, "Ġown": 870, "arly": 871, "Ġend": 872, "Ġass": 873, "Ġbel": 874, "Ġuse": 875, "ics": 876, "ange": 877, "--": 878, "ts": 879, "Ġlong": 880, "ĠAmeric": 881, "ters": 882, "ince": 883, "Ġbefore": 884, "omet": 885, "gr": 886, "Ġmon": 887, "ward": 888, "Ġgovern": 889, "Ġstart": 890, "Ġreport": 891, "ible": 892, "Ġke": 893, "up": 894, "ues": 895, "ĠNew": 896, "Ġfin": 897, "Ġteam": 898, "ble": 899, "Ġmade": 900, "ife": 901, "olog": 902, "ener": 903, "),": 904, "Ġsuch": 905, "ren": 906, "com": 907, "oun": 908, "erson": 909, "ek": 910, "ix": 911, "Ġsm": 912, "âĢĶ": 913, "lp": 914, "ility": 915, "Ġgoing": 916, "ism": 917, "ful": 918, "Ġworld": 919, "ually": 920, "Ġstud": 921, "ists": 922, "Ġgood": 923, "Ġac": 924, "tain": 925, "It": 926, "Ġsub": 927, "Ġeff": 928, "Ġsur": 929, "Ġagainst": 930, "its": 931, "Ġgame": 932, "Ġset": 933, "ork": 934, "Ġ6": 935, "Ġgu": 936, "Ġpoint": 937, "Ġent": 938, "ys": 939, "000": 940, "gan": 941, "ars": 942, "li": 943, "stem": 944, "Ġprov": 945, "Ġstill": 946, "roup": 947, "Ġwhile": 948, "illion": 949, "Ġhelp": 950, "Ġlead": 951, "Ġmin": 952, "ween": 953, "ef": 954, "ax": 955, "ank": 956, "alk": 957, "imes": 958, "Ġsays": 959, "Ġob": 960, "ms": 961, "cy": 962, "Ġprodu": 963, "Ġgr": 964, "Ġinter": 965, "Ġinst": 966, "Ġstr": 967, "cess": 968, "Ġsim": 969, "io": 970, "self": 971, "Ġconf": 972, "Ġcol": 973, "Ġtake": 974, "ures": 975, "arch": 976, "Ġsame": 977, "Ġthough": 978, "Ġbetween": 979, "ollow": 980, "Ġoffic": 981, "ever": 982, "Ġcr": 983, "Ġdiffere": 984, "ool": 985, "uss": 986, "ution": 987, "land": 988, "Ġdisc": 989, "air": 990, "Ġop": 991, "ah": 992, "Ġed": 993, "Ġhigh": 994, "read": 995, "Ġnum": 996, "Ġlaw": 997, "Ġsign": 998, "way": 999, "Ġgovernment": 1000, "gg": 1001, "ĠRe": 1002, "led": 1003, "ner": 1004, "hip": 1005, "atch": 1006, "hes": 1007, "ames": 1008, "any": 1009, "Ġter": 1010, "Ġsomet": 1011, "cent": 1012, "velop": 1013, "ted": 1014, "We": 1015, "Ġref": 1016, "Ġtrans": 1017, "ten": 1018, "Ġins": 1019, "Ġrun": 1020, "Ġser": 1021, "Ġfound": 1022, "Ġthree": 1023, "ives": 1024, "ave": 1025, "Ġmem": 1026, "Ġaround": 1027, "Ġhere": 1028, "ather": 1029, "Ġmed": 1030, "Ġreal": 1031, "Ġused": 1032, "ouse": 1033, "Ġ10": 1034, "ved": 1035, "Ġexp": 1036, "az": 1037, "ĠAr": 1038, "cept": 1039, "oot": 1040, "Ġsystem": 1041, "ĠYou": 1042, "ci": 1043, "Ġreally": 1044, "Ġmod": 1045, "ving": 1046, "con": 1047, "cer": 1048, "Ġgroup": 1049, "Ġsupport": 1050, "Ġ7": 1051, "Ġcour": 1052, "ets": 1053, "ale": 1054, "ins": 1055, "Ġret": 1056, "Ġhand": 1057, "Ġpublic": 1058, "Ġspec": 1059, "pr": 1060, "ĠLe": 1061, "ying": 1062, "Ġgreat": 1063, "Ġcar": 1064, "ense": 1065, "Ġext": 1066, ".[": 1067, "ton": 1068, "irect": 1069, "Ġcur": 1070, "Ġfam": 1071, "ĠCom": 1072, "alth": 1073, "Ġhapp": 1074, "Ġfact": 1075, "ph": 1076, "Ġexper": 1077, "ĠThey": 1078, "ĠTrump": 1079, "Ġfr": 1080, "Ġwom": 1081, "ĠIs": 1082, "Ġcap": 1083, "Ġboth": 1084, "Ġday": 1085, "Ġfind": 1086, "ĠAl": 1087, "ular": 1088, "Ġread": 1089, "ines": 1090, "oh": 1091, "ices": 1092, "Ġdet": 1093, "Ġlit": 1094, "Ġsl": 1095, "Ġrep": 1096, "uth": 1097, "ered": 1098, "Ġduring": 1099, "ĠSh": 1100, "ĠAs": 1101, "Ġ0": 1102, "Ġserv": 1103, "Ġmonth": 1104, "min": 1105, "the": 1106, "ision": 1107, "Ġcre": 1108, "Ġdevelop": 1109, "Ġbig": 1110, "Ġ8": 1111, "Ġperson": 1112, "akes": 1113, "Ġfollow": 1114, "ĠCl": 1115, "Ġiss": 1116, "ex": 1117, "Ġtold": 1118, "Ġsince": 1119, "ared": 1120, "med": 1121, "ically": 1122, "Ġweek": 1123, "ages": 1124, "ivers": 1125, "Ġwar": 1126, "Ġfew": 1127, "orth": 1128, "ording": 1129, "Ġcent": 1130, "Ġleg": 1131, "aj": 1132, "get": 1133, "Ġpolit": 1134, "ves": 1135, "ash": 1136, "Ġexpl": 1137, "Ġlot": 1138, "ric": 1139, "ĠSe": 1140, "Ġbelie": 1141, "Ġgener": 1142, "Ġtoo": 1143, "Ġ9": 1144, "der": 1145, "ata": 1146, "rent": 1147, "Ġopp": 1148, "Wh": 1149, "Ġrequ": 1150, "Ġcontin": 1151, "Ġprot": 1152, "iet": 1153, "bers": 1154, "anc": 1155, "Ġfil": 1156, "ention": 1157, "ness": 1158, "Ġcle": 1159, "Ġresp": 1160, "Ġput": 1161, "ized": 1162, "ĠIf": 1163, "Ġanother": 1164, "20": 1165, "chool": 1166, "Ġinf": 1167, "Ġsomething": 1168, "ĠDe": 1169, "Ġdifferent": 1170, "Ġcor": 1171, "Ġloc": 1172, "ute": 1173, "Ġinvest": 1174, "Ġsoc": 1175, "Ġpower": 1176, "Ġche": 1177, "uc": 1178, "Ġ'": 1179, "Ġpass": 1180, "Ġcommun": 1181, "Ġlife": 1182, "ĠFr": 1183, "Ġplan": 1184, "ody": 1185, "Ġrele": 1186, "ience": 1187, "Ġhead": 1188, "Ġthings": 1189, "ned": 1190, "Ġfar": 1191, "Ġart": 1192, "Ġposs": 1193, "Ġmet": 1194, "thing": 1195, "ox": 1196, "erest": 1197, "Ġcamp": 1198, "ross": 1199, "arge": 1200, "Ġvot": 1201, "ier": 1202, "This": 1203, "view": 1204, "Ġchild": 1205, "ants": 1206, "Ġask": 1207, "Ġ.": 1208, "Ġmight": 1209, "Ġeach": 1210, "ize": 1211, "iness": 1212, "Ġdep": 1213, "Ġnever": 1214, "Ġnext": 1215, "ik": 1216, "ield": 1217, "Ġsecond": 1218, "Ġmark": 1219, "tt": 1220, "Ġquest": 1221, "Ġbus": 1222, "Ġadv": 1223, "ĠAn": 1224, "Ġdem": 1225, "ĠFor": 1226, "Ġcome": 1227, "Ġgot": 1228, "ĠâĢĺ": 1229, "Ġopen": 1230, "Ġbest": 1231, "ient": 1232, "ital": 1233, "Ġallow": 1234, "ĠThat": 1235, "rat": 1236, "Ġseem": 1237, "Ġpost": 1238, "ple": 1239, "nce": 1240, "Ġfeel": 1241, "ĠPro": 1242, "ĠUS": 1243, "ug": 1244, "Ġpri": 1245, "gram": 1246, "Ġpercent": 1247, "cl": 1248, "Ġhome": 1249, "Ġdist": 1250, "Ġdirect": 1251, "ired": 1252, "Ġincre": 1253, "Ġcontro": 1254, "ĠRep": 1255, "son": 1256, "orn": 1257, "less": 1258, "osed": 1259, "Ġresult": 1260, "Ġhard": 1261, "Ġcare": 1262, "ately": 1263, "Ġmillion": 1264, "chn": 1265, "Ġcomple": 1266, "Ġplace": 1267, "Ġwithout": 1268, "Ġinform": 1269, "Ġincluding": 1270, "Ġimport": 1271, "Ġav": 1272, "conom": 1273, "Ġhum": 1274, "Ġide": 1275, "Ġproble": 1276, "Ġbuild": 1277, "Ġtop": 1278, "ama": 1279, "Ġnumber": 1280, "Ġcountry": 1281, "gy": 1282, "oney": 1283, "aim": 1284, "ĠBl": 1285, "ret": 1286, "ral": 1287, "ably": 1288, "uro": 1289, "Ġstand": 1290, "Ġgl": 1291, "Ġel": 1292, "riend": 1293, "Ġfour": 1294, "ished": 1295, "ways": 1296, "Ġpartic": 1297, "Ġbetter": 1298, "co": 1299, "Ġtri": 1300, "But": 1301, "Ġrecent": 1302, "Ġinterest": 1303, "Ġmov": 1304, "Ġlet": 1305, "ration": 1306, "Ġseason": 1307, "Ġless": 1308, "ead": 1309, "Ġturn": 1310, "Ġlittle": 1311, "Ġbeh": 1312, "Ġmil": 1313, "Ġappro": 1314, "ract": 1315, "line": 1316, "Ġbro": 1317, "ling": 1318, "ised": 1319, "Ġcalled": 1320, "app": 1321, "10": 1322, "Ġcase": 1323, "Ġdr": 1324, "ĠInd": 1325, "Ġrest": 1326, "Ġleft": 1327, "Ġpop": 1328, "Ġann": 1329, "ĠZ": 1330, "ency": 1331, "ode": 1332, "Ġmove": 1333, "ina": 1334, "Ġattack": 1335, "ĠThere": 1336, "Ġkeep": 1337, "Ġfull": 1338, "ering": 1339, "Ġdidn": 1340, "be": 1341, "Ġfun": 1342, "Ġmain": 1343, "ajor": 1344, "__": 1345, "Ġeffect": 1346, "inal": 1347, "me": 1348, "leg": 1349, "Ġprev": 1350, "Ġprogram": 1351, "Ġusing": 1352, "Ġtest": 1353, "Ġpay": 1354, "to": 1355, "ature": 1356, "Ġear": 1357, "Ġval": 1358, "Ġpolice": 1359, "Ġwrit": 1360, "Ġform": 1361, "Ġeconom": 1362, "Ġdata": 1363, "Ġnews": 1364, "Ġpos": 1365, "Ġwin": 1366, "ĠAmerican": 1367, "Ġlevel": 1368, "Ġsit": 1369, "Ġchar": 1370, "ains": 1371, "iving": 1372, "uck": 1373, "Ġsmall": 1374, "ined": 1375, "ready": 1376, "He": 1377, "Ġschool": 1378, "Ġlist": 1379, "ology": 1380, "rap": 1381, "mit": 1382, "ided": 1383, "ploy": 1384, "'re": 1385, "ger": 1386, "Ġeas": 1387, "Ġprocess": 1388, "ird": 1389, "Ġchange": 1390, "Ġwomen": 1391, "Ġcurrent": 1392, "Ġrece": 1393, "Ġprom": 1394, "Ġhist": 1395, "Ġdri": 1396, "Ġ=": 1397, "ians": 1398, "reen": 1399, "Ġpresident": 1400, "Ġcompany": 1401, "ĠSo": 1402, "used": 1403, "Ġmat": 1404, "ruct": 1405, "Ġalready": 1406, "ohn": 1407, "ĠUnited": 1408, "wit": 1409, "Ġty": 1410, "Ġwhy": 1411, "Ġbre": 1412, "Ġunt": 1413, "Ġmoney": 1414, "Ġsol": 1415, "Ġalways": 1416, "Ġlater": 1417, "Ġexpect": 1418, "Ġtechn": 1419, "Ġbusiness": 1420, "ĠHow": 1421, "Ġofficial": 1422, "ron": 1423, "ĠQ": 1424, "ĠOb": 1425, "stand": 1426, "iversity": 1427, "Ġbo": 1428, "Ġbook": 1429, "ĠPh": 1430, "aign": 1431, "Ġthing": 1432, "Ġclass": 1433, "Ġproject": 1434, "ases": 1435, "Ġclaim": 1436, "Ġjob": 1437, "Ġinformation": 1438, "Ġorgan": 1439, "aff": 1440, "ĠShe": 1441, "ards": 1442, "Ġtalk": 1443, "ĠBe": 1444, "Ġdesign": 1445, "Ġstory": 1446, "Ġchang": 1447, "Ġmajor": 1448, "Ġable": 1449, "Ġprof": 1450, "Ġ--": 1451, "...": 1452, "lection": 1453, "iven": 1454, "ertain": 1455, "Ġrese": 1456, "Ġhealth": 1457, "Ġvis": 1458, "Ġpast": 1459, "urs": 1460, "Ġfree": 1461, "here": 1462, "outh": 1463, "ĠAd": 1464, "Ġoper": 1465, "ption": 1466, "Ġaway": 1467, "ior": 1468, "ĠCan": 1469, "Ġmust": 1470, "Ġcity": 1471, "ample": 1472, "rist": 1473, "sc": 1474, "ural": 1475, "Ġhappen": 1476, "uthor": 1477, "Ġ18": 1478, "Ġimportant": 1479, "acy": 1480, "urity": 1481, "Ġkill": 1482, "Ġsk": 1483, "Ġest": 1484, "ured": 1485, "Ġold": 1486, "Ġpat": 1487, "ury": 1488, "ending": 1489, "Ġdoesn": 1490, "ission": 1491, "Ġleast": 1492, "Ġgrow": 1493, "Ġedit": 1494, "Ġvar": 1495, "ained": 1496, "St": 1497, "Ġcost": 1498, "ĠGo": 1499, "ney": 1500, "ider": 1501, "ides": 1502, "els": 1503, "Ġdays": 1504, "Ġtell": 1505, "Ġhop": 1506, "Ġstre": 1507, "Ġcampaign": 1508, "side": 1509, "Ġ12": 1510, "Ġmen": 1511, "Ġcame": 1512, "Ġaff": 1513, "Ġconst": 1514, "resident": 1515, "Ġenough": 1516, "Ġview": 1517, "ccess": 1518, "Ġkind": 1519, "ĠMar": 1520, "oad": 1521, "ĠSp": 1522, "ern": 1523, "Ġmaking": 1524, "Ġlarge": 1525, "Ġrecord": 1526, "50": 1527, "ush": 1528, "Ġfriend": 1529, "Ġmar": 1530, "Ġfamily": 1531, "âĢ¦": 1532, "ley": 1533, "Ġelect": 1534, "eral": 1535, "Ġpolic": 1536, "Ġtax": 1537, "ising": 1538, "by": 1539, "pped": 1540, "ality": 1541, "ator": 1542, "ified": 1543, "As": 1544, "ived": 1545, "arent": 1546, "ror": 1547, "Ġuntil": 1548, "ional": 1549, "Ġpolitical": 1550, "Ġvide": 1551, "Ġdeal": 1552, "ee": 1553, "ries": 1554, "alf": 1555, "augh": 1556, "Ġve": 1557, "Ġworking": 1558, "ued": 1559, "ĠRepublic": 1560, "Ġtook": 1561, "Ġdeb": 1562, "bs": 1563, "If": 1564, "ister": 1565, "Ġline": 1566, "ĠJohn": 1567, "aining": 1568, "Ġair": 1569, "----": 1570, "Ġes": 1571, "Ġintern": 1572, "Ġfore": 1573, "iol": 1574, "ane": 1575, "ocrat": 1576, "Ġbecome": 1577, "Ġactually": 1578, "aps": 1579, "ony": 1580, "Ġmean": 1581, "work": 1582, "Ġfund": 1583, "ĠSc": 1584, "ware": 1585, "19": 1586, "ember": 1587, "ĠPl": 1588, "Ġformer": 1589, "Ġoften": 1590, "ĠEuro": 1591, "ott": 1592, "ann": 1593, "Ġwon": 1594, "Ġgive": 1595, "oint": 1596, "Ġaccording": 1597, "Ġever": 1598, "most": 1599, "eng": 1600, "year": 1601, "wh": 1602, "aring": 1603, "Ġgames": 1604, "ison": 1605, "Ġhuman": 1606, "Ġbas": 1607, "Ġword": 1608, "ization": 1609, "Ġreturn": 1610, "Ġtimes": 1611, "Ġorder": 1612, "ĠRuss": 1613, "Ġbit": 1614, "ĠDem": 1615, "Ġname": 1616, "11": 1617, "gin": 1618, "Ġsever": 1619, "ĠAll": 1620, "Ġdev": 1621, "icle": 1622, "uture": 1623, "for": 1624, "ither": 1625, "iqu": 1626, "Ġpar": 1627, "Ġ199": 1628, "ĠMc": 1629, "Ġwr": 1630, "ĠCon": 1631, "raft": 1632, "Ġsing": 1633, "Ġperform": 1634, "ĠSy": 1635, "idd": 1636, "Ġmarket": 1637, "Ġfac": 1638, "Ġcharac": 1639, "There": 1640, "ĠOr": 1641, "ĠAt": 1642, "ĠMay": 1643, "Ġra": 1644, "Ġdoing": 1645, "Ġappear": 1646, "ER": 1647, "ched": 1648, "Ġplayers": 1649, "Ġla": 1650, "Ġnight": 1651, "Ġlear": 1652, "aken": 1653, "rop": 1654, "ats": 1655, "mber": 1656, "Ġtoday": 1657, "Ġearly": 1658, "Ġ15": 1659, "Ġseen": 1660, "//": 1661, "Ġhaving": 1662, "Ġ,": 1663, "Ġpot": 1664, "Ġchildren": 1665, "Ġevent": 1666, "Ġmedia": 1667, "Ġsocial": 1668, "Ġcrit": 1669, "ĠPresident": 1670, "Ġwhether": 1671, "Ġseveral": 1672, "Ġcontrol": 1673, "idence": 1674, "Ġmeet": 1675, "sh": 1676, "Ġmilit": 1677, "Ġpress": 1678, "Ġwent": 1679, "artment": 1680, "ene": 1681, "Ġfive": 1682, "Ġyoung": 1683, "ories": 1684, "Ġsure": 1685, "Ġprop": 1686, "iously": 1687, "Ġequ": 1688, "Ġquestion": 1689, "Ġocc": 1690, "Ġlikely": 1691, "vert": 1692, "une": 1693, "Ġmembers": 1694, "br": 1695, "ands": 1696, "Ġcertain": 1697, "ium": 1698, "Ġeng": 1699, "Ġwater": 1700, "ĠYork": 1701, "Ġexample": 1702, "ots": 1703, "ĠCol": 1704, "Ġside": 1705, "Ġant": 1706, "Ġarg": 1707, "Ġdone": 1708, "enn": 1709, "Ġvers": 1710, "Ġinvol": 1711, "ĠMr": 1712, "ĠStates": 1713, "ĠEurope": 1714, "ended": 1715, "let": 1716, "Ġalong": 1717, "Ġshort": 1718, "Ġsuccess": 1719, "ential": 1720, "Ġmonths": 1721, "ball": 1722, "Ġhour": 1723, "Ġ11": 1724, "Ġsex": 1725, "iver": 1726, "ially": 1727, "And": 1728, "lf": 1729, "empt": 1730, "Ġwithin": 1731, "Ġdesc": 1732, "imate": 1733, "Ġcourse": 1734, "Ġfight": 1735, "ster": 1736, "urch": 1737, "ubl": 1738, "Ġamong": 1739, "Ġactiv": 1740, "uff": 1741, "âĢĵ": 1742, "ague": 1743, "Ġonce": 1744, "Ġfuture": 1745, "Ġinvestig": 1746, "ulation": 1747, "rew": 1748, "Ġpossible": 1749, "ĠObama": 1750, "Ġcho": 1751, "nect": 1752, "Ġunderstand": 1753, "iting": 1754, "Ġconcer": 1755, "ĠOn": 1756, "Ġ]": 1757, "ones": 1758, "ortun": 1759, "Ġproblem": 1760, "ĠBr": 1761, "Ġpriv": 1762, "Ġmeans": 1763, "Ġviol": 1764, "ĠCar": 1765, "Ġauthor": 1766, "itive": 1767, "ĠNo": 1768, "ggest": 1769, "Ġavail": 1770, "oci": 1771, "ourn": 1772, "my": 1773, "Ġknown": 1774, "Ġproduct": 1775, "Ġnon": 1776, "ivid": 1777, "Ġthought": 1778, "Ġyet": 1779, "gress": 1780, "Ġacross": 1781, "Ġprotect": 1782, "Ġlocal": 1783, "ald": 1784, "ler": 1785, "Ġhold": 1786, "ĠTe": 1787, "Ġfail": 1788, "ĠWhen": 1789, "ĠState": 1790, "inc": 1791, "Ġcommunity": 1792, "Ġreason": 1793, "Ġorig": 1794, "Ġsuggest": 1795, "Ġ&": 1796, "12": 1797, "Ġmakes": 1798, "verage": 1799, "not": 1800, "por": 1801, "back": 1802, "Ġ2016": 1803, "Ġi": 1804, "book": 1805, "Ġasked": 1806, "ederal": 1807, "orld": 1808, "Ġreported": 1809, "You": 1810, "aged": 1811, "ensive": 1812, "Ġgiven": 1813, "Ġstrong": 1814, "Ġprob": 1815, "Ġmus": 1816, "Ġothers": 1817, "Ġbelieve": 1818, "Ġvideo": 1819, "iber": 1820, "Ġben": 1821, "Ġgetting": 1822, "ĠHouse": 1823, "ances": 1824, "Ġannoun": 1825, "Ġlight": 1826, "ored": 1827, "ober": 1828, "ĠUniversity": 1829, "Ġ30": 1830, "ĠCo": 1831, "itions": 1832, "Ġident": 1833, "iron": 1834, "Ġsent": 1835, "Ġcut": 1836, "Ġlim": 1837, "Ġca": 1838, "ĠChrist": 1839, "iety": 1840, "30": 1841, "urther": 1842, "Ġsour": 1843, "Ġcreat": 1844, "Ġcond": 1845, "ĠX": 1846, "rest": 1847, "ams": 1848, "'ve": 1849, "Ġnet": 1850, "ashing": 1851, "Ġbat": 1852, "ament": 1853, "Ġnational": 1854, ".,": 1855, "Ġclose": 1856, "Ġstarted": 1857, "Ġsaf": 1858, "Ġdeath": 1859, "aster": 1860, "Ġavailable": 1861, "arm": 1862, "Ġhig": 1863, "For": 1864, "Ġbased": 1865, "Ġissue": 1866, "of": 1867, "Ġindust": 1868, "ĠDemocrat": 1869, "ĠMin": 1870, "Ġlow": 1871, "Ġfollowing": 1872, "resent": 1873, "Ġaccount": 1874, "Ġland": 1875, "use": 1876, "ĠCent": 1877, "Ġemploy": 1878, "Ġlove": 1879, "Ġ2015": 1880, "Ġ#": 1881, "Ġhistory": 1882, "Ġago": 1883, "orts": 1884, "selves": 1885, "Ġmom": 1886, "Ġparty": 1887, "ability": 1888, "Ġseries": 1889, "eb": 1890, "Ġcomes": 1891, "Ġtrying": 1892, "uly": 1893, "utes": 1894, "ĠAm": 1895, "Ġalmost": 1896, "gether": 1897, "ument": 1898, "Ġtogether": 1899, "ination": 1900, "AT": 1901, "ĠAmerica": 1902, "pro": 1903, "Ġidea": 1904, "ief": 1905, "Ġaccess": 1906, "Ġfoc": 1907, "hers": 1908, "ilar": 1909, "ĠFl": 1910, "reed": 1911, "ails": 1912, "Ġcommit": 1913, "itional": 1914, "Ġisn": 1915, "ĠSen": 1916, "Ġclear": 1917, "Ġ16": 1918, "ĠOne": 1919, "Ġtrad": 1920, "though": 1921, "ring": 1922, "ĠWhat": 1923, "Ġpract": 1924, "Ġadded": 1925, "Ġimpro": 1926, "Ġexperience": 1927, "erence": 1928, "Ġfilm": 1929, "15": 1930, "Ġhalf": 1931, "ustom": 1932, "ged": 1933, "Ġhit": 1934, "af": 1935, "ĠBro": 1936, "witter": 1937, "rict": 1938, "Ġanal": 1939, "inton": 1940, "ograp": 1941, "unch": 1942, "Ġ2014": 1943, "Ġrul": 1944, "ividual": 1945, "Ġlooking": 1946, "Ġsix": 1947, "Ġlive": 1948, "Ġanything": 1949, "Ġarea": 1950, "Ġcomplete": 1951, "erman": 1952, "minist": 1953, "Ġmiss": 1954, "rael": 1955, "ĠEx": 1956, "ĠComm": 1957, "Ġfav": 1958, "Ġris": 1959, "ai": 1960, "nes": 1961, "Ġpresent": 1962, "ote": 1963, "rug": 1964, "Ġsaying": 1965, "raw": 1966, "aid": 1967, "ĠCanad": 1968, "Ġvict": 1969, "IN": 1970, "cially": 1971, "Ġbad": 1972, "ows": 1973, "uge": 1974, "Ġtaken": 1975, "ert": 1976, "Ġentire": 1977, "oto": 1978, "ĠPr": 1979, "ators": 1980, "ev": 1981, "Ġbill": 1982, "Ġcompet": 1983, "ĠEng": 1984, "Ġmor": 1985, "Ġbehind": 1986, "ien": 1987, "Ġaut": 1988, "ĠTo": 1989, "'m": 1990, "Ġcourt": 1991, "play": 1992, "Ġtry": 1993, "Ġtre": 1994, "Ġmilitary": 1995, "Ġz": 1996, "Ġnear": 1997, "osp": 1998, "Ġmult": 1999, "What": 2000, "Ġface": 2001, "wards": 2002, "Ġ14": 2003, "Ġsecurity": 2004, "Ġer": 2005, "ĠPol": 2006, "sy": 2007, "Ġproper": 2008, "Ġdiscuss": 2009, "Ġthreat": 2010, "Ġtot": 2011, "Ġstudy": 2012, "Ġsingle": 2013, "Ġrather": 2014, "Ġindividual": 2015, "ĠAf": 2016, "ĠBrit": 2017, "ĠWar": 2018, "ĠÂ": 2019, "ttp": 2020, "Ġquick": 2021, "ĠDon": 2022, "Ġmind": 2023, "ĠSec": 2024, "lement": 2025, "ales": 2026, "amed": 2027, "atic": 2028, "An": 2029, "ĠNorth": 2030, "aper": 2031, "Ġpubl": 2032, "Ġpolicy": 2033, "Ġmess": 2034, "ris": 2035, "par": 2036, "Ġblack": 2037, "Ġwanted": 2038, "Ġfall": 2039, "irc": 2040, "**": 2041, "off": 2042, "Ġfood": 2043, "Ġsum": 2044, "Ġsomeone": 2045, "lling": 2046, "ids": 2047, "On": 2048, "Ġ|": 2049, "Ġ/": 2050, "Ġcult": 2051, "Ġspecial": 2052, "Ġcomb": 2053, "Ġkey": 2054, "ĠMan": 2055, "Ġplayer": 2056, "Ġredu": 2057, "ĠGr": 2058, "Ġbring": 2059, "Ġ13": 2060, "Ġcompan": 2061, "Ġ17": 2062, "ply": 2063, "ĠDep": 2064, "Ġattempt": 2065, "ĠNational": 2066, "Ġtaking": 2067, "ĠBar": 2068, "When": 2069, "ON": 2070, "ify": 2071, "olution": 2072, "Ġ:": 2073, "viron": 2074, "Ġfoot": 2075, "ĠCal": 2076, "://": 2077, "Ġelse": 2078, "Ġpret": 2079, "Ġbody": 2080, "Ġspace": 2081, "elt": 2082, "rote": 2083, "over": 2084, "dd": 2085, "Ġprobably": 2086, "16": 2087, "icult": 2088, ".)": 2089, "Ġfront": 2090, "Ġcou": 2091, "Ġnothing": 2092, "Ġsw": 2093, "ashington": 2094, "ĠIm": 2095, "Ġconnect": 2096, "ches": 2097, "ĠWorld": 2098, "Ġresearch": 2099, "14": 2100, "ming": 2101, "ĠClinton": 2102, "ĠCity": 2103, "Ġcoming": 2104, "Ġpoints": 2105, "ĠIsrael": 2106, "RE": 2107, "Ġhowever": 2108, "Ġdescrib": 2109, "go": 2110, "Ġjo": 2111, "Ġsignific": 2112, "Ġsimilar": 2113, "yn": 2114, "reme": 2115, "cing": 2116, "Ġbenef": 2117, "lier": 2118, "ĠAust": 2119, "Ġdecision": 2120, "Ġeither": 2121, "aces": 2122, "Ġcoun": 2123, "ault": 2124, "So": 2125, "Ġmass": 2126, "mb": 2127, "ĠHar": 2128, "Ġsus": 2129, "Ġtarg": 2130, "ully": 2131, "ana": 2132, "Ġfeat": 2133, "That": 2134, "Ġimm": 2135, "Ġconv": 2136, "Ġexist": 2137, "irl": 2138, "Ġenc": 2139, "Ġ2013": 2140, "Ġrights": 2141, "Ġservice": 2142, "ĠSu": 2143, "asing": 2144, "ung": 2145, "sw": 2146, "IS": 2147, "Ġfire": 2148, "Ġdoc": 2149, "Ġwrote": 2150, "Ġfurther": 2151, "Ġhouse": 2152, "rodu": 2153, "Ġfig": 2154, "Ġchall": 2155, "ww": 2156, "Ġban": 2157, "Ġthird": 2158, "Ġwa": 2159, "Ġcreate": 2160, "Ġstop": 2161, "Ġfield": 2162, "now": 2163, "Ġpick": 2164, "AN": 2165, "ape": 2166, "ively": 2167, "Ġmeas": 2168, "Ġrepl": 2169, "Ġcompl": 2170, "ĠWith": 2171, "Ġissues": 2172, "pping": 2173, "Ġbegin": 2174, "Ġsuper": 2175, "amer": 2176, "Ġstep": 2177, "ried": 2178, "ently": 2179, "Ġwhole": 2180, "Ġrelations": 2181, "Ġseems": 2182, "Ġ)": 2183, "Ġcompanies": 2184, "pecially": 2185, "Ġdue": 2186, "Ġexec": 2187, "Ġcand": 2188, "Ġeverything": 2189, "Ġfederal": 2190, "ĠGu": 2191, "Ġstates": 2192, "Ġey": 2193, "Ġroom": 2194, "aul": 2195, "Ġtra": 2196, "Ġwatch": 2197, "oon": 2198, "ĠGe": 2199, "Ġcustom": 2200, "Ġleaders": 2201, "13": 2202, "uation": 2203, "ĠHowever": 2204, "pite": 2205, "ĠJan": 2206, "ĠWashington": 2207, "Ch": 2208, "lam": 2209, "Ġself": 2210, "Ġrole": 2211, "ran": 2212, "ilt": 2213, "Ġsound": 2214, "Ġlab": 2215, "att": 2216, "head": 2217, "Ġdam": 2218, "ivil": 2219, "Ġofficials": 2220, "Ġstri": 2221, "Ġ2012": 2222, "lu": 2223, "iday": 2224, "ibility": 2225, "Ġreleased": 2226, "ĠInst": 2227, "eal": 2228, "Ġbegan": 2229, "ĠDav": 2230, "ĠApp": 2231, "ĠSouth": 2232, "Ġopt": 2233, "obal": 2234, "Ġstudents": 2235, "Ġtreat": 2236, "Ġfinal": 2237, "Ġcharacter": 2238, "Ġposition": 2239, "Ġmatter": 2240, "Ã©": 2241, "ender": 2242, "Ġener": 2243, "lim": 2244, "Ġoutside": 2245, "ery": 2246, "sec": 2247, "ades": 2248, "Ġdou": 2249, "vironment": 2250, "Ġdevelopment": 2251, "Ġstatement": 2252, "Ġhimself": 2253, "Ġ2017": 2254, "Ġabove": 2255, "like": 2256, "Ġstat": 2257, "Ġinit": 2258, "Ġbreak": 2259, "Ġ100": 2260, "Ġamount": 2261, "Ġprovide": 2262, "Ġhours": 2263, "Ġitself": 2264, "Ġthemselves": 2265, "Ġoffice": 2266, "Ġrepresent": 2267, "Ġaction": 2268, "ĠPart": 2269, "Ġdi": 2270, "Ġbecame": 2271, "Ġ198": 2272, "Ġgeneral": 2273, "Ġcontinue": 2274, "Ġcountries": 2275, "ĠIntern": 2276, "Ġneg": 2277, "iod": 2278, "Ġaddress": 2279, "Ġ25": 2280, "Ġgun": 2281, "aced": 2282, "ask": 2283, "Ġtrue": 2284, "Ġspecific": 2285, "ograph": 2286, "umb": 2287, "arter": 2288, "reg": 2289, "Ġlarg": 2290, "Ġsignificant": 2291, "lish": 2292, "Ġsimply": 2293, "ĠAss": 2294, "ĠRes": 2295, "Ġwasn": 2296, "'ll": 2297, "Ġinterview": 2298, "acebook": 2299, "ili": 2300, "Ġground": 2301, "Ġrad": 2302, "oid": 2303, "ogn": 2304, "Ġdifficult": 2305, "Ġrunning": 2306, "ĠJust": 2307, "Ġevidence": 2308, "Ġadminist": 2309, "BC": 2310, "Ġcop": 2311, "17": 2312, "ream": 2313, "Ġdrug": 2314, "Ġversion": 2315, "ogle": 2316, "Ġbar": 2317, "ĠEd": 2318, "Ġagree": 2319, "eks": 2320, "iddle": 2321, "Ġbuilding": 2322, "ĠChina": 2323, "Ġneeds": 2324, "Ġprofess": 2325, "angu": 2326, "Ġgroups": 2327, "right": 2328, "Ġtyp": 2329, "Ġrespons": 2330, "Ġcommon": 2331, "Ġshows": 2332, "Ġeveryone": 2333, "Ġdom": 2334, "Ġdest": 2335, "Ġneeded": 2336, "Ġball": 2337, "Ġwoman": 2338, "ĠGerman": 2339, "Ġlat": 2340, "Ġbelow": 2341, "Ġtem": 2342, "light": 2343, "ournal": 2344, "Ġmusic": 2345, "Ġexc": 2346, "Ġrelease": 2347, "ift": 2348, "Ġinj": 2349, "Ġpretty": 2350, "ĠMed": 2351, "ĠAb": 2352, "AR": 2353, "ribut": 2354, "Ġinclude": 2355, "Ġsaw": 2356, "Ġdeep": 2357, "Ġap": 2358, "body": 2359, "18": 2360, "Ġplayed": 2361, "Ġquite": 2362, "Ġindustry": 2363, "Ġcharg": 2364, "Ġmag": 2365, "Ġenergy": 2366, "Ġplaying": 2367, "Ġmot": 2368, "Ġ50": 2369, "Ġcandid": 2370, "Ġsense": 2371, "Ġphys": 2372, "Ġlate": 2373, "Ġalleg": 2374, "Ġwhite": 2375, "ĠHis": 2376, "ival": 2377, "Ġfriends": 2378, "Ġgen": 2379, "Ġlegal": 2380, "atur": 2381, "Ġanim": 2382, "isc": 2383, "bo": 2384, "yle": 2385, "ĠAfter": 2386, "How": 2387, "AS": 2388, "where": 2389, "Ġabs": 2390, "lev": 2391, "Ġinstead": 2392, "Ġred": 2393, "Ġbillion": 2394, "Ġlost": 2395, "Ġespecially": 2396, "Ġvalue": 2397, "ĠMus": 2398, "ĠWest": 2399, "Ġhost": 2400, "Ġhom": 2401, "osing": 2402, "oring": 2403, "ĠNews": 2404, "time": 2405, "ager": 2406, "Ġple": 2407, "istic": 2408, "Ġweeks": 2409, "epend": 2410, "ĠNot": 2411, "ccording": 2412, "omm": 2413, "Ġforward": 2414, "ique": 2415, "Ġdeter": 2416, "Ġelection": 2417, "Ġrecently": 2418, "Ġjud": 2419, "Ġtrack": 2420, "Ġsuff": 2421, "Ġvote": 2422, "ĠTwitter": 2423, "Ġobject": 2424, "irt": 2425, "lt": 2426, "medi": 2427, "Ġperiod": 2428, "Ġchanges": 2429, "Ġopportun": 2430, "ĠWhite": 2431, "ĠOct": 2432, "Ġlo": 2433, "Ġlonger": 2434, "arc": 2435, "oke": 2436, "eed": 2437, "Ġep": 2438, "Ġpain": 2439, "Ġsoon": 2440, "Ġsite": 2441, "Ġ{": 2442, "hod": 2443, "ript": 2444, "ached": 2445, "Ġaccept": 2446, "ĠCong": 2447, "____": 2448, "Ġshoot": 2449, "Ġeconomic": 2450, "Ġhope": 2451, "irm": 2452, "oe": 2453, "Ġmoment": 2454, "Ġdecl": 2455, "lege": 2456, "Ġconsum": 2457, "ĠWill": 2458, "Ġpie": 2459, "Ġtit": 2460, "Ġcheck": 2461, "oph": 2462, "Ġpotential": 2463, "ij": 2464, "Ġblock": 2465, "ĠMarch": 2466, "ole": 2467, "Ġwrong": 2468, "duct": 2469, "ners": 2470, "ĠSept": 2471, "ĠDepartment": 2472, "Ġhigher": 2473, "onse": 2474, "Ġcred": 2475, "Ġonline": 2476, "Ġfocus": 2477, "Ġ24": 2478, "Ġconsider": 2479, "key": 2480, "Ġeduc": 2481, "ancial": 2482, "ĠMy": 2483, "ns": 2484, "iding": 2485, "Ġcirc": 2486, "Ġworks": 2487, "Ġrelig": 2488, "Ġshare": 2489, "Ġparent": 2490, "cial": 2491, "Ġheld": 2492, "25": 2493, "Ġpred": 2494, "ĠDr": 2495, "Ġwalk": 2496, "Ġwebs": 2497, "Ġled": 2498, "ularly": 2499, "==": 2500, "Ġreve": 2501, "lear": 2502, "Ġstay": 2503, "ĠThese": 2504, "overed": 2505, "alt": 2506, "Ġstru": 2507, "ĠRepublican": 2508, "Ġrisk": 2509, "Ġwords": 2510, "ĠAug": 2511, "Ġrev": 2512, "Ġsold": 2513, "Ġreview": 2514, "icro": 2515, "Ġcontract": 2516, "Ġresults": 2517, "Ġservices": 2518, "Ġlaws": 2519, "They": 2520, "Ġcode": 2521, "cil": 2522, "ĠMich": 2523, "Ġwind": 2524, "Ġfunction": 2525, "Ġaud": 2526, "Ġce": 2527, "ĠSyri": 2528, "put": 2529, "aut": 2530, "Ġtotal": 2531, "fect": 2532, "Ġarticle": 2533, "Ġage": 2534, "Ġapplic": 2535, "Ġminutes": 2536, "urd": 2537, "ĠMe": 2538, "Ġpersonal": 2539, "ilities": 2540, "Ġanyone": 2541, "uary": 2542, "ients": 2543, "itution": 2544, "asons": 2545, "ĠJune": 2546, "Ad": 2547, "ateg": 2548, "Ġprim": 2549, "anger": 2550, "Ġtarget": 2551, "ĠSte": 2552, "fer": 2553, "Ġden": 2554, "Ġearlier": 2555, "ule": 2556, "Ġfavor": 2557, "Ġexpress": 2558, "haps": 2559, "Ġdead": 2560, "Ġansw": 2561, "Ġupd": 2562, "Ġpopular": 2563, "che": 2564, "Ġcomput": 2565, "Ġvol": 2566, "pril": 2567, "Ġnecess": 2568, "ham": 2569, "Ġhy": 2570, "Ġrate": 2571, "ES": 2572, "aging": 2573, "Ġtechnology": 2574, "apan": 2575, "Ġrespect": 2576, "ĠPe": 2577, "val": 2578, "Ġenvironment": 2579, "Ġ2011": 2580, "Ph": 2581, "Ġreceived": 2582, "Ġexpected": 2583, "ude": 2584, "ends": 2585, "Ġgoal": 2586, "ĠPar": 2587, "Ġcreated": 2588, "Ġbase": 2589, "Ġsurpr": 2590, "Ġanti": 2591, "ĠSm": 2592, "ĠJuly": 2593, "eter": 2594, "tee": 2595, "Ġproblems": 2596, "uel": 2597, "Ġways": 2598, "Ġport": 2599, "iple": 2600, "action": 2601, "Ġprivate": 2602, "ĠDo": 2603, "Ġscient": 2604, "Ġincrease": 2605, "ray": 2606, "reet": 2607, "Ġannounced": 2608, "Ġcomment": 2609, "isl": 2610, "Ġcannot": 2611, "Ġeasy": 2612, "Al": 2613, "Ġshot": 2614, "ĠCongress": 2615, "Ġquestions": 2616, "bit": 2617, "Ġforce": 2618, "aterial": 2619, "hern": 2620, "Ġimpact": 2621, "na": 2622, "Ġet": 2623, "ĠMond": 2624, "ples": 2625, "Ġpack": 2626, "Ġ+": 2627, "ĠFacebook": 2628, "Ġpur": 2629, "Ġlangu": 2630, "atives": 2631, "ĠGod": 2632, "ĠEn": 2633, "Ġinvolved": 2634, "omb": 2635, "aving": 2636, "ills": 2637, "60": 2638, "lex": 2639, "hood": 2640, "onst": 2641, "ĠAustral": 2642, "Ġdiv": 2643, "uesday": 2644, "Ġexecut": 2645, "ctor": 2646, "Ġmodel": 2647, "itiz": 2648, "Ġsen": 2649, "Ġspeak": 2650, "Ġstaff": 2651, "Ġexact": 2652, "Ġcivil": 2653, "ires": 2654, "Ġnearly": 2655, "Ġtype": 2656, "ourt": 2657, "okes": 2658, "ees": 2659, "Ġoriginal": 2660, "Ġcases": 2661, "Ġcontent": 2662, "Ġ197": 2663, "Ġrelationship": 2664, "Ġterror": 2665, "ĠGoogle": 2666, "To": 2667, "Ġleave": 2668, "ĠFriday": 2669, "Ġresponse": 2670, "Ġcapt": 2671, "Ġinside": 2672, "Ġ<": 2673, "Ġphot": 2674, "lled": 2675, "ech": 2676, "Ġfans": 2677, "ĠApril": 2678, "rem": 2679, "ĠRed": 2680, "Ġinternational": 2681, "Ġcoll": 2682, "cast": 2683, "Ġheart": 2684, "Ġaverage": 2685, "Ġbroad": 2686, "Ġarrest": 2687, "Ġusers": 2688, "ĠCount": 2689, "Ġcal": 2690, "At": 2691, "rel": 2692, "Ġcell": 2693, "Ġworth": 2694, "Ġsoft": 2695, "Ġur": 2696, "Ġliving": 2697, "ĠEm": 2698, "bor": 2699, "Ġnation": 2700, "ips": 2701, "ky": 2702, "Ġkilled": 2703, "Ġreports": 2704, "Ġ2010": 2705, "ãģ": 2706, "ging": 2707, "Ġbecom": 2708, "Ġsource": 2709, "ĠMonday": 2710, "ĠTuesday": 2711, "Ġsubject": 2712, "Ġworked": 2713, "atural": 2714, "ests": 2715, "Ġestab": 2716, "Ġimmedi": 2717, "EN": 2718, "Ġrespond": 2719, "Ġglobal": 2720, "Ġassoci": 2721, "joy": 2722, "ellig": 2723, "Ġclub": 2724, "ops": 2725, "ĠAmericans": 2726, "ael": 2727, "Ġobs": 2728, "ites": 2729, "ĠPer": 2730, "ĠPal": 2731, "Ġchance": 2732, "Ġoil": 2733, "ĠAct": 2734, "Ġability": 2735, "ĠNe": 2736, "Ġtakes": 2737, "rought": 2738, "Ġweap": 2739, "hel": 2740, "Ġprice": 2741, "ĠJapan": 2742, "ological": 2743, "Ġdirector": 2744, "izing": 2745, "Ġworkers": 2746, "Ġterms": 2747, "Ġroad": 2748, "mon": 2749, "Ġpublished": 2750, "Ġdel": 2751, "ĠWhile": 2752, "Ġtou": 2753, "Ġphone": 2754, "rain": 2755, "Ġcollect": 2756, "Ġfinancial": 2757, "Ġmid": 2758, "osition": 2759, "Ġdecided": 2760, "ises": 2761, "OR": 2762, "ĠRussia": 2763, "ĠSome": 2764, "ĠWed": 2765, "Ġmother": 2766, "Ġsqu": 2767, "Ġlack": 2768, "Ġdefin": 2769, "ovember": 2770, "Ġ40": 2771, "Ġgirl": 2772, "Ġstore": 2773, "Ġgave": 2774, "Ġbuy": 2775, "Ġinflu": 2776, "ĠCalif": 2777, "Ġlog": 2778, "Ġhappened": 2779, "ino": 2780, "Ġrequire": 2781, "ĠNow": 2782, "Ġemer": 2783, "Ġfem": 2784, "\".": 2785, "Ġcapital": 2786, "clus": 2787, "Ġforeign": 2788, "Ġcurrently": 2789, "ĠOff": 2790, "based": 2791, "ĠSan": 2792, "Ġgoes": 2793, "ĠBy": 2794, "oved": 2795, "ĠGeor": 2796, "vertise": 2797, "Ġsituation": 2798, "Ġindic": 2799, "Ġoffer": 2800, "Ġwhose": 2801, "Ġ@": 2802, "Ġtal": 2803, "Ġmaterial": 2804, "Ġlives": 2805, "unt": 2806, "Ġaffect": 2807, "rown": 2808, "ought": 2809, "Ġplans": 2810, "nesday": 2811, "Ġarri": 2812, "Ġmember": 2813, "Ġpict": 2814, "ursday": 2815, "ĠFeb": 2816, "Ġparticip": 2817, "ruction": 2818, "Ġrecogn": 2819, "Ġturned": 2820, "Ġmethod": 2821, "Ġevents": 2822, "ĠJanuary": 2823, "ĠHill": 2824, "Ġnetwork": 2825, "One": 2826, "Ġteams": 2827, "ĠSund": 2828, "Ġbank": 2829, "Ġmeeting": 2830, "40": 2831, "rect": 2832, "Ġnorm": 2833, "Ġintrodu": 2834, "Ġsimple": 2835, "fully": 2836, "ĠIslam": 2837, "Ġill": 2838, "ĠAg": 2839, "Ġhuge": 2840, "ĠSeptember": 2841, "oud": 2842, "Ġregard": 2843, "Ġareas": 2844, "Ġcy": 2845, "order": 2846, "ĠCor": 2847, "ese": 2848, "ĠTV": 2849, "Ġcouple": 2850, "Ġapproach": 2851, "Ġcareer": 2852, "aur": 2853, "ĠAfric": 2854, "ĠGl": 2855, "load": 2856, "\",": 2857, "Ġdeli": 2858, "Ġrace": 2859, "lin": 2860, "Ġperformance": 2861, "Ġpage": 2862, "ety": 2863, "apt": 2864, "ĠNovember": 2865, "Ġtool": 2866, "ĠDavid": 2867, "Ġfelt": 2868, "Ġquickly": 2869, "Ġmis": 2870, "Ġnumbers": 2871, "oor": 2872, "Ġemail": 2873, "Ġ21": 2874, "aily": 2875, "Ġord": 2876, "ĠEl": 2877, "istan": 2878, "Ġadministration": 2879, "Ġhon": 2880, "ĠWednesday": 2881, "Ġvictim": 2882, "ĠPaul": 2883, "Ġvia": 2884, "Ġimprove": 2885, "Ġengine": 2886, "chie": 2887, "--------": 2888, "Ġfre": 2889, "Ġpull": 2890, "ĠAng": 2891, "Ġround": 2892, "bl": 2893, "Ġbuilt": 2894, "Ġ22": 2895, "Ġpers": 2896, "ĠEuropean": 2897, "Ġdig": 2898, "ened": 2899, "ĠThursday": 2900, "Ġfather": 2901, "ornia": 2902, "Ġloss": 2903, "avy": 2904, "Ġthous": 2905, "ÂŃ": 2906, "Ġhttp": 2907, "ructure": 2908, "Ġproduction": 2909, "Ġboy": 2910, "ume": 2911, "Ġheard": 2912, "down": 2913, "Sh": 2914, "Ġeconomy": 2915, "âĢĿ.": 2916, "Ġenjoy": 2917, "ĠAugust": 2918, "Ġtrade": 2919, "ĠSch": 2920, "face": 2921, "Ġwebsite": 2922, "iment": 2923, "Ġsecret": 2924, "Ġcover": 2925, "Ġreveal": 2926, "Ġwide": 2927, "Ġboard": 2928, "Ġmatch": 2929, "ĠCourt": 2930, "AL": 2931, "Ġallowed": 2932, "Ġhands": 2933, "Ġspent": 2934, "Ġtravel": 2935, "Ġlower": 2936, "Ġrepe": 2937, "atory": 2938, "Ġpoll": 2939, "Ġste": 2940, "Ġincluded": 2941, "cember": 2942, "ĠOctober": 2943, "Ġneigh": 2944, "Ġlegisl": 2945, "orters": 2946, "uses": 2947, "Ġbehav": 2948, "iction": 2949, "Ġknew": 2950, "Ġtext": 2951, "Ġwants": 2952, "Ġtown": 2953, "ights": 2954, "ĠBritish": 2955, "Ġsepar": 2956, "ences": 2957, "estern": 2958, "Ġvisit": 2959, "ĠCanada": 2960, "anks": 2961, "ctions": 2962, "With": 2963, "Ġperfect": 2964, "Ġgets": 2965, "ze": 2966, "ession": 2967, "Ġmovement": 2968, "ishing": 2969, "ground": 2970, "agement": 2971, "Ġtried": 2972, "Ġcause": 2973, "?âĢĿ": 2974, "gest": 2975, "Ġ}": 2976, "Ġforces": 2977, "ĠSunday": 2978, "Ġens": 2979, "After": 2980, "force": 2981, "ceed": 2982, "Ġattention": 2983, "Ġparticular": 2984, "Ġbi": 2985, "][": 2986, "ening": 2987, "Ġveh": 2988, "Ġbud": 2989, "Ġfear": 2990, "Ġpopulation": 2991, "Ġvarious": 2992, "ĠUK": 2993, "Ġreach": 2994, "ma": 2995, "Ġlooks": 2996, "Ġ23": 2997, "ĠCalifornia": 2998, "Ġbrought": 2999, "Ġvo": 3000, "ĠKore": 3001, "Ġlink": 3002, "ibly": 3003, ");": 3004, "urning": 3005, "arily": 3006, "ĠIS": 3007, "200": 3008, "Ġprevious": 3009, "ED": 3010, "Ġmention": 3011, "ĠRussian": 3012, "Ġmorning": 3013, "ĠQu": 3014, "cle": 3015, "idered": 3016, "eg": 3017, "'d": 3018, "Ġfair": 3019, "Ġgrowth": 3020, "aker": 3021, "ĠSw": 3022, "undred": 3023, "99": 3024, "sequ": 3025, "yond": 3026, "Ġprogress": 3027, "Ġfell": 3028, "raz": 3029, "alled": 3030, "Ġsong": 3031, "iam": 3032, "ĠCont": 3033, "AC": 3034, "Ġtraining": 3035, "field": 3036, "hold": 3037, "uk": 3038, "Ġsize": 3039, "ĠBlack": 3040, "cies": 3041, "ĠDecember": 3042, "idents": 3043, "Ġcontact": 3044, "ledge": 3045, "ĠHer": 3046, "Ġdemand": 3047, "While": 3048, "Ġimage": 3049, "Ġhor": 3050, "Ġrac": 3051, "Ġhot": 3052, "ification": 3053, "OS": 3054, "Ġleader": 3055, "set": 3056, "ecause": 3057, "Ġrules": 3058, "Ġprep": 3059, "Ġliber": 3060, "Ġsearch": 3061, "Ġess": 3062, "ĠPost": 3063, "Ġcitiz": 3064, "Ġupon": 3065, "Ġstrugg": 3066, "ĠStreet": 3067, "Ġlatest": 3068, "come": 3069, "Ġindepend": 3070, "US": 3071, "uments": 3072, "inks": 3073, "arth": 3074, "Ġfeatures": 3075, "Ġcoach": 3076, "ondon": 3077, "ĠPark": 3078, "iant": 3079, "Ġfast": 3080, "Tr": 3081, "oo": 3082, "sych": 3083, "Ġtalking": 3084, "ĠJew": 3085, "omp": 3086, "Ġaddition": 3087, "ges": 3088, "Ġstar": 3089, "Ġwond": 3090, "ĠSenate": 3091, "IT": 3092, "ĠPat": 3093, "Ġspeed": 3094, "Ġexam": 3095, "Ġconsidered": 3096, "raq": 3097, "icles": 3098, "aries": 3099, "Ġreb": 3100, "bed": 3101, "Ġlevels": 3102, "eth": 3103, "ĠTimes": 3104, "ĠCounty": 3105, "elligence": 3106, "Ġslow": 3107, "Ġinvestigation": 3108, "ps": 3109, "ille": 3110, "Ġconduct": 3111, "aph": 3112, "ĠParty": 3113, "22": 3114, "ĠKing": 3115, "Ġmedical": 3116, "Ġmach": 3117, "imately": 3118, "vent": 3119, "Ġachie": 3120, "Ġlanguage": 3121, "aturday": 3122, "Ġcard": 3123, "Ġsn": 3124, "unk": 3125, "Ġsort": 3126, "Ġcritic": 3127, "ope": 3128, "ĠTex": 3129, "ĠCenter": 3130, "Ġpen": 3131, "Ġund": 3132, "wo": 3133, "ĠIndia": 3134, "Ġpaper": 3135, "ysis": 3136, "IC": 3137, "Ġ2008": 3138, "pir": 3139, "Ġconserv": 3140, "Ġparents": 3141, "imin": 3142, "Ġsexual": 3143, "Ġsystems": 3144, "Ġprior": 3145, "ha": 3146, "uit": 3147, "asc": 3148, "Ġdoll": 3149, "Ġwritten": 3150, "uf": 3151, "Ġbox": 3152, "Ġspokes": 3153, "igr": 3154, "Ġseek": 3155, "Ġsens": 3156, "het": 3157, "Ġdocument": 3158, "idge": 3159, "eared": 3160, "Ġincreasing": 3161, "Ġhear": 3162, "ani": 3163, "atform": 3164, "Ġdraw": 3165, "Ġseven": 3166, "Ġson": 3167, "ĠMuslim": 3168, "Ġeffort": 3169, "ruary": 3170, "Ġjobs": 3171, "ĠIran": 3172, "Ġextreme": 3173, "Ġprevent": 3174, "Ġlearn": 3175, "ining": 3176, "Ġserious": 3177, "Ġregul": 3178, "rast": 3179, "Ġinn": 3180, "Ġrange": 3181, "Ġ...": 3182, "room": 3183, "Ġviolence": 3184, "Ġeight": 3185, "ĠMark": 3186, "80": 3187, "ources": 3188, "ĠIraq": 3189, "itch": 3190, "OP": 3191, "Ġsurve": 3192, "Ġcompletely": 3193, "Ġconc": 3194, "Ġ2009": 3195, "Ġmessage": 3196, "ico": 3197, "tr": 3198, "Ġâ": 3199, "She": 3200, "Ġobv": 3201, "Ġinteresting": 3202, "reedom": 3203, "Ġscreen": 3204, "abor": 3205, "Ġopportunity": 3206, "eff": 3207, "Ġclimate": 3208, "24": 3209, "ext": 3210, "Ġmajority": 3211, "ĠKe": 3212, "anced": 3213, "Ġparticularly": 3214, "Ġdoub": 3215, "Ġjournal": 3216, "ĠRom": 3217, "Ġdespite": 3218, "Ġclaims": 3219, "ĠChar": 3220, "Ġanswer": 3221, "Ġsociety": 3222, "ĠLondon": 3223, "Ġdefense": 3224, "Ġcarry": 3225, "entially": 3226, "aming": 3227, "Ġguy": 3228, "Ġextra": 3229, "ension": 3230, "mp": 3231, "ĠDonald": 3232, "isions": 3233, "Ġattacks": 3234, "Ġrequired": 3235, "erve": 3236, "rench": 3237, "illed": 3238, "Ġbiggest": 3239, "vertisement": 3240, "ĠEast": 3241, "Ġexactly": 3242, "iers": 3243, "Ġpaid": 3244, "ĠMore": 3245, "ibr": 3246, "Ġexperien": 3247, "Ġaren": 3248, "lying": 3249, "uclear": 3250, "inese": 3251, "Ġmodern": 3252, "Ġremain": 3253, "Ġquarter": 3254, "Ġofficers": 3255, "ett": 3256, "Ġhundred": 3257, "Ġcross": 3258, "Ġexcept": 3259, "utions": 3260, "ari": 3261, "Ġtable": 3262, "Ġpractice": 3263, "Ġnatural": 3264, "inally": 3265, "Ġmiddle": 3266, "erc": 3267, "Ġ27": 3268, "Ġcertainly": 3269, "Ġdro": 3270, "add": 3271, "oses": 3272, "ĠSaturday": 3273, "Ġstories": 3274, "ĠNet": 3275, "Ġhistor": 3276, "Ġgas": 3277, "Ġproducts": 3278, "Ġsurv": 3279, "Ġlooked": 3280, "Ġsometimes": 3281, "nces": 3282, "Ġstuff": 3283, "Ġrout": 3284, "Ġscience": 3285, "Ġfinally": 3286, "Ġuser": 3287, "AM": 3288, "Ġsummer": 3289, "Ġmovie": 3290, "Ġblood": 3291, "ospital": 3292, "aves": 3293, "Ġcommunic": 3294, "Ġaw": 3295, "ously": 3296, "Ġlay": 3297, "Ġchanged": 3298, "Ġones": 3299, "Ġleading": 3300, "Ġdescribed": 3301, "ĠSand": 3302, "Ġimag": 3303, "Ġterm": 3304, "ĠFebruary": 3305, "fl": 3306, "Ġprison": 3307, "Ġconvers": 3308, "ny": 3309, "Ġdetails": 3310, "icks": 3311, "Ġstarting": 3312, "ĠSpe": 3313, "Ġquality": 3314, "Ġoccur": 3315, "Ġpan": 3316, "hib": 3317, "Ġshowed": 3318, "Ġnamed": 3319, "Ġgiving": 3320, "Ġult": 3321, "Ġremains": 3322, "ĠMcC": 3323, "uing": 3324, "Ġregion": 3325, "pper": 3326, "Ġprovided": 3327, "Ġcosts": 3328, "akers": 3329, "ĠSoc": 3330, "arr": 3331, "Ġdamage": 3332, "Ġmob": 3333, "Ġdanger": 3334, "Ġfit": 3335, "aught": 3336, "ĠTH": 3337, "ĠTur": 3338, "Ġchief": 3339, "Ġpoor": 3340, "Ġpath": 3341, "ĠMor": 3342, "ida": 3343, "Ġeducation": 3344, "Ġmultiple": 3345, "Ġcontinued": 3346, "enge": 3347, "ĠInt": 3348, "Ġgrowing": 3349, "No": 3350, "Ġdemonst": 3351, "ĠChe": 3352, "Ġ*": 3353, "Ġparts": 3354, "yl": 3355, "Ġ26": 3356, "Ġwriting": 3357, "Ġcomments": 3358, "Ġ28": 3359, "Ġment": 3360, "Ġmaintain": 3361, "Ġsafe": 3362, "Ġassist": 3363, "Ġthinking": 3364, "ĠDes": 3365, "inary": 3366, "ĠRepublicans": 3367, "ĠEven": 3368, "Ġpurp": 3369, "Ġrequest": 3370, "Ġwrite": 3371, "Ġfix": 3372, "Ġitem": 3373, "Ġpurch": 3374, "ables": 3375, "Ġdied": 3376, "ĠDemocratic": 3377, "ĠCoun": 3378, "FL": 3379, "ago": 3380, "Ġready": 3381, "coin": 3382, "Ġwouldn": 3383, "Ġimplement": 3384, "23": 3385, "Ġincreased": 3386, "Ġculture": 3387, "fort": 3388, "Ġefforts": 3389, "Ġvoters": 3390, "ux": 3391, "pre": 3392, "Ġcamer": 3393, "Ġmill": 3394, "aly": 3395, "....": 3396, "oper": 3397, "Ġreading": 3398, "mitted": 3399, "iminal": 3400, "Ġfile": 3401, "Ġusually": 3402, "Ġcalls": 3403, "Ġspot": 3404, "Ġeffects": 3405, "Im": 3406, "ĠGener": 3407, "zz": 3408, "Ġperhaps": 3409, "ban": 3410, "Ġalone": 3411, "arian": 3412, "iles": 3413, "ĠFirst": 3414, "Ġalthough": 3415, "Ġtowards": 3416, "ĠLeague": 3417, "de": 3418, "Ġconsist": 3419, "ĠBill": 3420, "ĠTexas": 3421, "Ġselect": 3422, "Ġguys": 3423, "Ġstandard": 3424, "ĠMichael": 3425, "Ġsubst": 3426, "Ġcele": 3427, "Ġbeyond": 3428, "Ġdirectly": 3429, "Ġplatform": 3430, "ĠChinese": 3431, "Ġ(@": 3432, "Ġhous": 3433, "using": 3434, "itute": 3435, "Ġspeech": 3436, "Ġreality": 3437, "icated": 3438, "Ġkids": 3439, "ĠJames": 3440, "Ġavoid": 3441, "Ġthroughout": 3442, "Ġfootball": 3443, "Ġstudent": 3444, "ara": 3445, "Ġcouldn": 3446, "rowd": 3447, "BI": 3448, "Ġunf": 3449, "ford": 3450, "Ġimmediately": 3451, "oul": 3452, "Ġrob": 3453, "Ġincludes": 3454, "Ġcat": 3455, "Ġconcept": 3456, "egr": 3457, "Ġcenter": 3458, "Ġchoice": 3459, "Ġscene": 3460, "Ġcomplex": 3461, "anch": 3462, "Ġadditional": 3463, "sp": 3464, "ĠMon": 3465, "Ġchalleng": 3466, "ĠCons": 3467, "Ġwife": 3468, "Ġclos": 3469, "urt": 3470, "Ġtro": 3471, "Ġrecomm": 3472, "Ġresearc": 3473, "Re": 3474, "Ġepis": 3475, "hest": 3476, "itor": 3477, "All": 3478, "Ġver": 3479, "ĠMinister": 3480, "Ġsle": 3481, "Ġcorpor": 3482, "ĠâĢ¦": 3483, "Ġdesigned": 3484, "ĠSer": 3485, "urg": 3486, "agon": 3487, "Ġremember": 3488, "Ġsoftware": 3489, "Ġsafety": 3490, "ĠIndian": 3491, "wise": 3492, "Ġgone": 3493, "Ġil": 3494, "astic": 3495, "ports": 3496, "Ġcast": 3497, "Ġsell": 3498, "Ġtoward": 3499, "Ġagency": 3500, "Ġten": 3501, "Ġofficer": 3502, "aches": 3503, "Ġfigure": 3504, "Ġpiece": 3505, "Ġbrain": 3506, "omen": 3507, "Ġbattle": 3508, "ĠJack": 3509, "men": 3510, "Ġcounter": 3511, "Ġdebate": 3512, "airs": 3513, "ression": 3514, "ston": 3515, "Ġthousands": 3516, "adem": 3517, "Ġswe": 3518, "rupt": 3519, "Ġopin": 3520, "Ġahead": 3521, "icient": 3522, "Now": 3523, "imum": 3524, "Ġrelative": 3525, "irth": 3526, "Ġletter": 3527, "Ġreceive": 3528, "Ġpressure": 3529, "ĠÐ": 3530, "ĠBo": 3531, "Ġblog": 3532, "ilies": 3533, "ampions": 3534, "Ġ>": 3535, "Ġsil": 3536, "Ġmoved": 3537, "Ġlaunch": 3538, "Ġappears": 3539, "Ġoption": 3540, "ĠPlay": 3541, "Ġpassed": 3542, "Ġut": 3543, "Ġprec": 3544, "Ġstage": 3545, "roy": 3546, "oes": 3547, "Ġ60": 3548, "Ġclean": 3549, "ĠServ": 3550, "olute": 3551, "ĠII": 3552, "atever": 3553, "berg": 3554, "OT": 3555, "Ġproperty": 3556, "27": 3557, "Ġhelped": 3558, "amb": 3559, "Ġdrive": 3560, "ĠApple": 3561, "just": 3562, "Ġalleged": 3563, "ĠGreen": 3564, "Ġtwe": 3565, "new": 3566, "Ġdisapp": 3567, "Ġtour": 3568, "Ġmeaning": 3569, "Ġrock": 3570, "Ġdog": 3571, "Ġx": 3572, "Ġcris": 3573, "itation": 3574, "ĠAssoci": 3575, "Ġsuspect": 3576, "Ġdate": 3577, "ĠRich": 3578, "aughter": 3579, "Ġmoving": 3580, "Ġscore": 3581, "ĠDemocrats": 3582, "Ġorganization": 3583, "Ġsat": 3584, "Ġconditions": 3585, "Ġtouch": 3586, "Ġdark": 3587, "Ġcommand": 3588, "ĠThen": 3589, "Ġign": 3590, "?\"": 3591, "Ġreasons": 3592, "Ġbudget": 3593, "Ġpark": 3594, "more": 3595, "Ġnuclear": 3596, "Ġmyself": 3597, "Ġnom": 3598, "Ġdeg": 3599, "Ġhappy": 3600, "Ġdevice": 3601, "Ġdifference": 3602, "rief": 3603, "ĠSim": 3604, "Ġmaybe": 3605, "chan": 3606, "Ġbeginning": 3607, "AD": 3608, "Ġcopy": 3609, "Ġnature": 3610, "Ġfailed": 3611, "wood": 3612, "Ġfan": 3613, "Ġcharacters": 3614, "yan": 3615, "Ġcomputer": 3616, "Ġencour": 3617, "Ġaim": 3618, "ĠMart": 3619, "Ġtitle": 3620, "Ġwall": 3621, "Ġcompared": 3622, "Ġleague": 3623, "ocked": 3624, "ĠSuper": 3625, "ivity": 3626, "Ġestim": 3627, "ĠVal": 3628, "ĠStar": 3629, "Ġcollege": 3630, "Ġeyes": 3631, "Ġshown": 3632, "ĠEnglish": 3633, "Ġcentury": 3634, "Ġpowerful": 3635, "ĠDay": 3636, "lease": 3637, "ource": 3638, "Ġbal": 3639, "aint": 3640, "Ġlimited": 3641, "Ġyes": 3642, "Ġband": 3643, "Ġcontribut": 3644, "Ġpositive": 3645, "Ġforced": 3646, "Ġsche": 3647, "Ġnecessary": 3648, "Ġrefer": 3649, "Ġcandidate": 3650, "Ġstra": 3651, "Ġdisp": 3652, "35": 3653, "cient": 3654, "Ġbooks": 3655, "Ġtrust": 3656, "AP": 3657, "ĠFrench": 3658, "Ġlargest": 3659, "26": 3660, "Ġarch": 3661, "enty": 3662, "Ġsal": 3663, "ĠHere": 3664, "Ġconference": 3665, "ĠRober": 3666, "aud": 3667, "Ġnote": 3668, "Ġanalysis": 3669, "ufact": 3670, "Ġspending": 3671, "Ġpresidential": 3672, "45": 3673, "ĠOf": 3674, "Ġcitizens": 3675, "orks": 3676, "Ġschools": 3677, "igration": 3678, "ĠSyria": 3679, "Ġthrow": 3680, "venue": 3681, "ĠBen": 3682, "Ġaware": 3683, "Ġmeant": 3684, "Ġexecutive": 3685, "Ġeventually": 3686, "My": 3687, "Ġphysical": 3688, "Ġfollowed": 3689, "Ġfeature": 3690, "Ġtreatment": 3691, "Ġcrowd": 3692, "Be": 3693, "ĠTor": 3694, "ĠWind": 3695, "Ġfirm": 3696, "Ġstreng": 3697, "Ġconfir": 3698, "Ġmix": 3699, "Ġbott": 3700, "ero": 3701, "Ġcorrect": 3702, "orney": 3703, "Ġ29": 3704, "ares": 3705, "ĠDis": 3706, "Ġgrad": 3707, "Ġreligious": 3708, "Ġeasily": 3709, "Ġautom": 3710, "Ġesc": 3711, "Ġpus": 3712, "band": 3713, "board": 3714, "Is": 3715, "Ġcool": 3716, "etro": 3717, "Ġ196": 3718, "Ġfamilies": 3719, "Ġilleg": 3720, "ressed": 3721, "craft": 3722, "cul": 3723, "rated": 3724, "Ġactions": 3725, "Ġoverall": 3726, "ĠAir": 3727, "ĠMex": 3728, "Ġallows": 3729, "Ġgives": 3730, "Ġfeed": 3731, "ĠÂ£": 3732, "):": 3733, "Ġsusp": 3734, "ube": 3735, "Ġyourself": 3736, "By": 3737, "Ġdraft": 3738, "bum": 3739, "ken": 3740, "Ġsmart": 3741, "Ġappeared": 3742, "Ġdetail": 3743, "Ġincome": 3744, "iring": 3745, "Ġanaly": 3746, "ĠBel": 3747, "Ġsigned": 3748, "New": 3749, "encies": 3750, "Ġcentral": 3751, "Ġideas": 3752, "Ġang": 3753, "ĠGovern": 3754, "Ġsenior": 3755, "Advertisement": 3756, "Ġfrequ": 3757, "Ġweapons": 3758, "ID": 3759, "ĠBre": 3760, "Ġhar": 3761, "Ġdisplay": 3762, "Ġpromot": 3763, "Ġnice": 3764, "Ġcredit": 3765, "Ġdecades": 3766, "Ġpsych": 3767, "Ġpolitics": 3768, "Don": 3769, "Ġcrime": 3770, "OM": 3771, "EC": 3772, "Ġuses": 3773, "inn": 3774, "Ġdoor": 3775, "Ġdise": 3776, "uty": 3777, "ĠInternational": 3778, "Ġunique": 3779, "28": 3780, "Ġaltern": 3781, "Ġlif": 3782, "According": 3783, "Ġdrop": 3784, "Ġsales": 3785, "mar": 3786, "Ġdeveloped": 3787, "Ar": 3788, "resh": 3789, "Ġcustomers": 3790, "ET": 3791, "Ġbenefits": 3792, "Ġconflic": 3793, "urance": 3794, "Ġrelated": 3795, "Ġcrisis": 3796, "ĠSchool": 3797, "Ġmist": 3798, "erry": 3799, "iable": 3800, "Ġpredict": 3801, "Ġnoted": 3802, "ĠCap": 3803, "29": 3804, "ĠAustralia": 3805, "ĠEU": 3806, "Ġtruth": 3807, "box": 3808, "part": 3809, "Ġgoals": 3810, "iny": 3811, "Ġindividuals": 3812, "Ġcharge": 3813, "ĠEarth": 3814, "Ġbeaut": 3815, "Ġcontinues": 3816, "onents": 3817, "ĠUnion": 3818, "ĠArab": 3819, "Ġobserv": 3820, "Ġrap": 3821, "Ġchallenge": 3822, "Ġsto": 3823, "nown": 3824, "Ġapparent": 3825, "ĠAngel": 3826, "itely": 3827, "ĠSmith": 3828, "Ġlic": 3829, "Ġprojects": 3830, "Ġpeace": 3831, "Ġmeasure": 3832, "ĠPolice": 3833, "oti": 3834, "Ġintelligence": 3835, "ĠChristian": 3836, "Ġpreviously": 3837, "ĠGermany": 3838, "Ġfully": 3839, "Ġrule": 3840, "Ġmanager": 3841, "Ġbrother": 3842, "Ġrates": 3843, "Ġadvant": 3844, "Un": 3845, "change": 3846, "Ġexpand": 3847, "Ġclearly": 3848, "Ġreform": 3849, "Ġlines": 3850, "net": 3851, "Ġsuccessful": 3852, "riage": 3853, "Ġhighly": 3854, "Ġlarger": 3855, "ounds": 3856, "21": 3857, "Ġtraff": 3858, "Ġspread": 3859, "iance": 3860, "Ġseemed": 3861, "ĠCouncil": 3862, "Ġstraight": 3863, "Some": 3864, "Ġcriminal": 3865, "ĠComp": 3866, "Ġminor": 3867, "Ġemb": 3868, "ki": 3869, "ĠGeorge": 3870, "Ġprograms": 3871, "iced": 3872, "attle": 3873, "owers": 3874, "ĠFranc": 3875, "Ġincident": 3876, "Ġresources": 3877, "ĠTom": 3878, "Ġgreater": 3879, "Ġprimary": 3880, "IA": 3881, "inated": 3882, "antly": 3883, "Ġknowledge": 3884, "Pro": 3885, "Ġstudies": 3886, "while": 3887, "dom": 3888, "Ġsave": 3889, "orter": 3890, "Ġweb": 3891, "ategy": 3892, "ean": 3893, "Ġkept": 3894, "Ġattract": 3895, "ĠFlor": 3896, "olic": 3897, "Ġspir": 3898, "Ġemot": 3899, "que": 3900, "Ġcolor": 3901, "Ġfeet": 3902, "ĠCr": 3903, "sey": 3904, "Ġrare": 3905, "Ġreached": 3906, "ĠAnt": 3907, "secut": 3908, "Ġarm": 3909, "ĠHigh": 3910, "levision": 3911, "ĠInternet": 3912, "ĠBrown": 3913, "oday": 3914, "iders": 3915, "osh": 3916, "Ġfavorite": 3917, "Ġplaces": 3918, "rs": 3919, "ĠRec": 3920, "Ġregular": 3921, "wide": 3922, "ota": 3923, "vere": 3924, "Ġmanufact": 3925, "Ġlaun": 3926, "ĠDef": 3927, "100": 3928, "Ġsend": 3929, "Ġprem": 3930, "ĠHam": 3931, "roll": 3932, "lick": 3933, "icit": 3934, "Ġknows": 3935, "Ġshooting": 3936, "Ġactivity": 3937, "Ġpun": 3938, "Ġsources": 3939, "Ġnormal": 3940, "icago": 3941, "bon": 3942, "term": 3943, "ingly": 3944, "onent": 3945, "ser": 3946, "ville": 3947, "Ġstatus": 3948, "Ġfighting": 3949, "Ġvoice": 3950, "Ġrise": 3951, "ocks": 3952, "Ġfine": 3953, "Ġowners": 3954, "Ġcaused": 3955, "Ġclaimed": 3956, "ĠMac": 3957, "Ġenem": 3958, "Ġliter": 3959, "ĠRob": 3960, "ĠUp": 3961, "ĠGeneral": 3962, "aith": 3963, "EO": 3964, "Ġoptions": 3965, "Ġ2007": 3966, "Ġintegr": 3967, "ength": 3968, "usion": 3969, "Ġspend": 3970, "ĠGold": 3971, "ado": 3972, "Ġcities": 3973, "miss": 3974, "Ġorganiz": 3975, "ING": 3976, "Ġended": 3977, "iled": 3978, "Ġresearchers": 3979, "Ġcalling": 3980, "Ġshut": 3981, "Ġreflect": 3982, "ĠLa": 3983, "mission": 3984, "mark": 3985, "org": 3986, "âĢĿ,": 3987, "oles": 3988, "70": 3989, "roid": 3990, "Ġprices": 3991, "ĠEvery": 3992, "Ġalbum": 3993, "ĠFrom": 3994, "ifying": 3995, "Ġemployees": 3996, "Ġfemale": 3997, "ĠEngland": 3998, "ya": 3999, "www": 4000, "Ġvirt": 4001, "Ġhaven": 4002, "Ġraised": 4003, "mittee": 4004, "Ġele": 4005, "Ġjump": 4006, "uana": 4007, "33": 4008, "Ġsupposed": 4009, "itness": 4010, "Ġhappens": 4011, "Ġadding": 4012, "Ġpolicies": 4013, "Ġnames": 4014, "Ġcharges": 4015, "Ġpros": 4016, "Ġtrou": 4017, "ica": 4018, "ribution": 4019, "Ġbasic": 4020, "iverse": 4021, "uman": 4022, "Not": 4023, "ĠMag": 4024, "Ġconcerns": 4025, "Ġtraditional": 4026, "Ġwait": 4027, "inger": 4028, "Ġplant": 4029, "Ġabsolute": 4030, "Ġacqu": 4031, "Ġhospital": 4032, "Ġfunding": 4033, "ram": 4034, "ĠBay": 4035, "Ġprint": 4036, "Ġslight": 4037, "Ġcommer": 4038, "rol": 4039, "Ġpatients": 4040, "Ġauthorities": 4041, "Ġminister": 4042, "Sc": 4043, "Ġcreating": 4044, "Ġfreedom": 4045, "ĠAP": 4046, "Ġmechan": 4047, "Ġscen": 4048, "ĠMo": 4049, "Ġstyle": 4050, "Ġseeing": 4051, "Ġgrand": 4052, ".âĢĻ": 4053, "Ġbeat": 4054, "Ġlik": 4055, "ona": 4056, "rian": 4057, "Ġstation": 4058, "ĠScott": 4059, "see": 4060, "Ġpush": 4061, "ijuana": 4062, "Ġbehavior": 4063, "Ġbeg": 4064, "Ġleaving": 4065, "Ġcry": 4066, "Ġimpl": 4067, "Ġbirth": 4068, "Ġir": 4069, "Ġactual": 4070, "EL": 4071, "Ġensure": 4072, "Ġoffered": 4073, "pen": 4074, "Ġagreement": 4075, "ĠFlorida": 4076, "Ġeth": 4077, "soft": 4078, "ĠHillary": 4079, "Ġposted": 4080, "Ġgold": 4081, "ĠSun": 4082, "Ġweekend": 4083, "Ġgreen": 4084, "ĠMost": 4085, "ĠBer": 4086, "ĠReg": 4087, "Ġadult": 4088, "alse": 4089, "Ġweight": 4090, "OU": 4091, ".'": 4092, "acing": 4093, "Ġdetermin": 4094, "Ġvac": 4095, "Here": 4096, "Ġrevealed": 4097, "ĠWell": 4098, "Ġapplication": 4099, "Ġmostly": 4100, "Ġvalues": 4101, "Ġpropos": 4102, "itude": 4103, "ĠAlex": 4104, "aby": 4105, "Ġwilling": 4106, "earch": 4107, "Ġrank": 4108, "Ġadop": 4109, "ĠAccording": 4110, "Ġestabl": 4111, "Ġeye": 4112, "Ġrecords": 4113, "ection": 4114, "âĢ¢": 4115, "500": 4116, "Ġenforce": 4117, "http": 4118, "Ġpicture": 4119, "Ġbelieved": 4120, "pri": 4121, "Ġmer": 4122, "uild": 4123, "Ġbrief": 4124, "ĠLet": 4125, "Ġlearned": 4126, "ĠLaw": 4127, "Ġinstall": 4128, "Ġstrategy": 4129, "Ġappl": 4130, "SA": 4131, "igned": 4132, "Ġchoose": 4133, "istry": 4134, "Ġdire": 4135, "Ġwonder": 4136, "Ġqual": 4137, "Ġmassive": 4138, "Ġdevices": 4139, "Ġbenefit": 4140, "Ġwild": 4141, "Ġparties": 4142, "ĠChicago": 4143, "Ġlawy": 4144, "ĠPeople": 4145, "Ġuns": 4146, "cher": 4147, "Ġcars": 4148, "ĠTrans": 4149, "ĠPort": 4150, "cont": 4151, "ĠPhil": 4152, "Ġarrested": 4153, "Ġmount": 4154, "Ġwhatever": 4155, "Ġwat": 4156, "ĠOh": 4157, "ĠFrance": 4158, "Ġstreet": 4159, "Ġ;": 4160, "Ġprovides": 4161, "Ġwhom": 4162, "Ġassault": 4163, "90": 4164, "liament": 4165, "Ġasking": 4166, "Ġinfluence": 4167, "ties": 4168, "Ġjudge": 4169, "Ġlose": 4170, "Ġfat": 4171, "Ġfeeling": 4172, "Ġoperations": 4173, "Ġproduced": 4174, "Ġtemper": 4175, "ste": 4176, "Ġcritical": 4177, "ĠSecret": 4178, "ĠLou": 4179, "Ġnegoti": 4180, "point": 4181, "Ġmission": 4182, "Ġenter": 4183, "ĠBush": 4184, "Ex": 4185, "Ġimages": 4186, "Ð¾": 4187, "ĠStud": 4188, "Ġconfirmed": 4189, "Ġshowing": 4190, "IL": 4191, "Ġdistrict": 4192, "ription": 4193, "Ġruns": 4194, "Ġpattern": 4195, "gen": 4196, "Ġtend": 4197, "ĠMat": 4198, "Ġborder": 4199, "Ġresidents": 4200, "orial": 4201, "rav": 4202, "Ġdebt": 4203, "However": 4204, "ĠÃ": 4205, "aked": 4206, "no": 4207, "Ġcru": 4208, "Ġteac": 4209, "mine": 4210, "ĠCommittee": 4211, "udd": 4212, "Ġopposition": 4213, "Cl": 4214, "Ġcelebr": 4215, "ĠWall": 4216, "ĠHealth": 4217, "Ġsection": 4218, "Ġdefend": 4219, "Ġetc": 4220, "estic": 4221, "Ġproduce": 4222, "icial": 4223, "ĠCommission": 4224, "Ġdrink": 4225, "Ġindependent": 4226, "ĠMod": 4227, "ront": 4228, "cell": 4229, "ĠWhy": 4230, "Ġbrand": 4231, "ented": 4232, "ags": 4233, "ugg": 4234, "Ġcore": 4235, "ĠPress": 4236, "Ġtick": 4237, "Ġdigital": 4238, "ĠBit": 4239, "Ġhero": 4240, "Ġadvoc": 4241, "ae": 4242, "Ġdollars": 4243, "ocr": 4244, "rial": 4245, "Ġeffective": 4246, "Ġsolution": 4247, "ĠMal": 4248, "Ġvill": 4249, "Ġinterested": 4250, "ĠSam": 4251, "ĠKorea": 4252, "BA": 4253, "Ġhighest": 4254, "ords": 4255, "Ġmemory": 4256, "Ġopening": 4257, "Ġworse": 4258, "Ġlearning": 4259, "Ġresponsible": 4260, "Ġtrial": 4261, "Ġdaily": 4262, "Ġkick": 4263, "Ġtheory": 4264, "ĠOther": 4265, "Ġoffers": 4266, "ĠPalest": 4267, "Ġreplace": 4268, "Ġrestrict": 4269, "ĠGet": 4270, "Ġmur": 4271, "ĠOffice": 4272, "Ġagreed": 4273, "Ġtelevision": 4274, "ĠFrancis": 4275, "cience": 4276, "ĠMicro": 4277, "ĠBecause": 4278, "Ġoccas": 4279, "ST": 4280, "illing": 4281, "CC": 4282, "Ġtrain": 4283, "Ġinvestment": 4284, "Ġvs": 4285, "Ġtypes": 4286, "iation": 4287, "ĠWestern": 4288, "aks": 4289, "icians": 4290, "Ġchair": 4291, "Ġmiles": 4292, "Ġmillions": 4293, "uries": 4294, "Ġchem": 4295, "ĠJustice": 4296, "ĠDel": 4297, "Ġgenerally": 4298, "Ġbasis": 4299, "Ġproposed": 4300, "Ġ80": 4301, "ĠMike": 4302, "ĠMil": 4303, "ĠCup": 4304, "These": 4305, "ipe": 4306, "Ġheavy": 4307, "Ġexplained": 4308, "Ġmap": 4309, "ĠOur": 4310, "AA": 4311, "rad": 4312, "Ġder": 4313, "Ġbur": 4314, "oly": 4315, "Ġpartners": 4316, "ander": 4317, "ĠAdd": 4318, "Ġopinion": 4319, "win": 4320, "Ġdefe": 4321, "Ġonto": 4322, "Ġprotest": 4323, "Con": 4324, "________": 4325, "Get": 4326, "Ġassociated": 4327, "Ġload": 4328, "rig": 4329, "azing": 4330, "ĠNFL": 4331, "rate": 4332, "oom": 4333, "44": 4334, "ĠFound": 4335, "Ġmale": 4336, "Ġbecomes": 4337, "Ġreject": 4338, "outhern": 4339, "====": 4340, "ĠSecurity": 4341, "vest": 4342, "Ġcoal": 4343, "Ġobtain": 4344, "Ġdestroy": 4345, "Ġadvantage": 4346, "Ġassum": 4347, "ĠLiber": 4348, "Ġcondition": 4349, "Ġannounce": 4350, "Ġhundreds": 4351, "Ġachieve": 4352, "Ġopened": 4353, "eline": 4354, "Ġunderstanding": 4355, "odes": 4356, "ĠJohnson": 4357, "coming": 4358, "icip": 4359, "Ġsurround": 4360, "ading": 4361, "orthern": 4362, "bert": 4363, "well": 4364, "la": 4365, "upp": 4366, "Ġinitial": 4367, "ĠAtt": 4368, "ĠBig": 4369, "Ġsleep": 4370, "36": 4371, "Ġship": 4372, "Ġmarriage": 4373, "Ġmanagement": 4374, "ĠWindows": 4375, "Ġthus": 4376, "Ġlimit": 4377, "Ġborn": 4378, "32": 4379, "Ġbecoming": 4380, "known": 4381, "Ġphoto": 4382, "Ġeasier": 4383, "FC": 4384, "ĠGreat": 4385, "Ġrat": 4386, "Ġlegislation": 4387, "Ġcontrovers": 4388, "Ġunlike": 4389, "Ġelectric": 4390, "ĠMany": 4391, "Ġcamera": 4392, "witch": 4393, "Ġaccused": 4394, "Ġspl": 4395, "Ġneighbor": 4396, "Ġdouble": 4397, "Ġice": 4398, "Ġspecies": 4399, "lant": 4400, "Ġshared": 4401, "Ġjoin": 4402, "Ġillegal": 4403, "Ġ31": 4404, "ĠLab": 4405, "Ġ2006": 4406, "Mr": 4407, "Ġharm": 4408, "Ġmachine": 4409, "Ġserved": 4410, "ĠJer": 4411, "GB": 4412, "Ġextremely": 4413, "olf": 4414, "Ġactive": 4415, "Ġ35": 4416, "Ġserve": 4417, "Ġdocuments": 4418, "ĠIslamic": 4419, "Ġframe": 4420, "za": 4421, "Ġstrik": 4422, "level": 4423, "ĠDist": 4424, "Ġaudience": 4425, "BS": 4426, "Ġlocation": 4427, "ĠAM": 4428, "Ġscientists": 4429, "Ġbottom": 4430, "Ġvictims": 4431, "ĠArt": 4432, "orrow": 4433, "Ġwealth": 4434, "Ġprofessional": 4435, "Ġresist": 4436, "ih": 4437, "Ġreduce": 4438, "Ġbelief": 4439, "Ġnine": 4440, "Ġsolid": 4441, "Ġwinning": 4442, "Ġmarijuana": 4443, "ears": 4444, "ĠUk": 4445, "Ġnegative": 4446, "75": 4447, "iful": 4448, "Ġcommunities": 4449, "Ġreturned": 4450, "ortunately": 4451, "Ġbed": 4452, "Ġincred": 4453, "ĠPM": 4454, "ĠInstitute": 4455, "met": 4456, "tered": 4457, "Ġchurch": 4458, "PS": 4459, "Ġdepartment": 4460, "irgin": 4461, "ĠSanders": 4462, "Ġran": 4463, "Ġvictory": 4464, "rey": 4465, "Ġpurpose": 4466, "Ġ90": 4467, "ĠCommun": 4468, "Ġamb": 4469, "lands": 4470, "Ġvehicle": 4471, "Ġinternet": 4472, "Ġleadership": 4473, "ios": 4474, "ĠHall": 4475, "istics": 4476, "Ġbomb": 4477, "Ġmobile": 4478, "ghan": 4479, "Ġinstance": 4480, "ipped": 4481, "38": 4482, "Ġseparate": 4483, "Ġexisting": 4484, "Ġnotice": 4485, "Ġhearing": 4486, "Ġdie": 4487, "Ġexplain": 4488, "Ġdoubt": 4489, "Ġfaith": 4490, "Ġteach": 4491, "house": 4492, "ĠYour": 4493, "atically": 4494, "Ġepisode": 4495, "Ġwatching": 4496, "Ġcomfort": 4497, "ĠCanadian": 4498, "ĠBank": 4499, "Ġnotes": 4500, "Ġradio": 4501, "ĠEv": 4502, "Ġfresh": 4503, "ĠFin": 4504, "Ġunc": 4505, "Ġviews": 4506, "ĠInc": 4507, "Ġputting": 4508, "asy": 4509, "Ġsupporters": 4510, "Ġconservative": 4511, "Ġpurs": 4512, "Ġargument": 4513, "omas": 4514, "Ġmicro": 4515, "ario": 4516, "acity": 4517, "Ġlaunched": 4518, "scrib": 4519, "works": 4520, "OL": 4521, "Ġappeal": 4522, "iliar": 4523, "Ġitems": 4524, "Ġcommittee": 4525, "resp": 4526, "ĠMad": 4527, "which": 4528, "Ġdefinitely": 4529, "Ġdangerous": 4530, "iller": 4531, "PA": 4532, "zen": 4533, "Ġcoverage": 4534, "Ġdirection": 4535, "ĠOver": 4536, "Ġcharged": 4537, "Ġfloor": 4538, "Ġsun": 4539, "Ġmax": 4540, "ography": 4541, "34": 4542, "EM": 4543, "ĠCarol": 4544, "ĠChurch": 4545, "ĠFox": 4546, "Ġissued": 4547, "Ġdrugs": 4548, "Image": 4549, "ipp": 4550, "Ġtask": 4551, "Ġbackground": 4552, "Ġcompetition": 4553, "Ġtrend": 4554, "Ġstated": 4555, "vention": 4556, "andom": 4557, "ada": 4558, "Ġtraffic": 4559, "ĠFBI": 4560, "Ġcommercial": 4561, "ĠDirect": 4562, "urb": 4563, "itt": 4564, "NA": 4565, "Ġspoke": 4566, "Ġsett": 4567, "inct": 4568, "Ġtransfer": 4569, "Ġsuggested": 4570, "Ġstructure": 4571, "Ġsites": 4572, "Ġhus": 4573, "Ġnorth": 4574, "ĠSince": 4575, "ĠLike": 4576, "Ġrestaur": 4577, "ampionship": 4578, "Ġlabor": 4579, "Ġdecade": 4580, "Ġrepeated": 4581, "ĠGame": 4582, "Ġreact": 4583, "oman": 4584, "Ġcards": 4585, "Ġanimals": 4586, "going": 4587, "Ġnovel": 4588, "ctors": 4589, "but": 4590, "ribute": 4591, "Ġdaughter": 4592, "anted": 4593, "ĠSl": 4594, "Ġdriving": 4595, "Ġclosed": 4596, "Ġworst": 4597, "Ġcontain": 4598, "Ġentirely": 4599, "Ġded": 4600, "ĠBritain": 4601, "ady": 4602, "gency": 4603, "Ġdriver": 4604, "ĠWil": 4605, "Ġdisease": 4606, "Ġtelling": 4607, "iling": 4608, "Ġsmaller": 4609, "Ġdiscovered": 4610, "Ġnor": 4611, "Bl": 4612, "akistan": 4613, "Ġrefere": 4614, "ĠPri": 4615, "Americ": 4616, "ĠLos": 4617, "ius": 4618, "Ġhack": 4619, "hem": 4620, "equ": 4621, "!âĢĿ": 4622, "ference": 4623, "ĠQue": 4624, "spe": 4625, "Ġfalse": 4626, "Ġcash": 4627, "Ġconcerned": 4628, "ulf": 4629, "Ġplays": 4630, "Ġsurface": 4631, "semb": 4632, "Ġsupported": 4633, "annel": 4634, "ulated": 4635, "Ġtools": 4636, "oyal": 4637, "Ġcompar": 4638, "Ġtransport": 4639, "ĠChris": 4640, "Ġexperiment": 4641, "Ġfinding": 4642, "night": 4643, "Ġcateg": 4644, "ãĤ": 4645, "Ġaspect": 4646, "##": 4647, "Ġbusinesses": 4648, "Ġ70": 4649, "ĠUN": 4650, "ait": 4651, "Ġfarm": 4652, "Ġplease": 4653, "Ġolder": 4654, "azon": 4655, "how": 4656, "Ġactivities": 4657, "Ġrequires": 4658, "phone": 4659, "CH": 4660, "Ġgay": 4661, "ĠJones": 4662, "do": 4663, "ibrary": 4664, "Ġstrength": 4665, "48": 4666, "Ġwel": 4667, "andon": 4668, "Ġinsurance": 4669, "Ġconsequ": 4670, "37": 4671, "Ġlargely": 4672, "Ġmurder": 4673, "NN": 4674, "ici": 4675, "55": 4676, "Ġexerc": 4677, "Ġcaught": 4678, "Ġcandidates": 4679, "kins": 4680, "ĠIsraeli": 4681, "Ġallowing": 4682, "icy": 4683, "Ġblue": 4684, "ĠAre": 4685, "Ġannual": 4686, "ĠKen": 4687, "ĠTre": 4688, "Ġtesting": 4689, "ossible": 4690, "Ġstrateg": 4691, "ĠSup": 4692, "Ġraise": 4693, "Ġstock": 4694, "arant": 4695, "overy": 4696, "ĠRobert": 4697, "izes": 4698, "Ġdecisions": 4699, "Ġaccur": 4700, "rick": 4701, "Ġcontext": 4702, "Ġfuel": 4703, "ĠAc": 4704, "SP": 4705, "lor": 4706, "osure": 4707, "ĠUkrain": 4708, "Ġconcern": 4709, "Ġafford": 4710, "Ġbelieves": 4711, "Ġconstruction": 4712, "Ġtruly": 4713, "****": 4714, "ĠTy": 4715, "ĠMiss": 4716, "Ġge": 4717, "Ġjustice": 4718, "igrants": 4719, "Ġgeneration": 4720, "Ġhighlight": 4721, "Ġunit": 4722, "rim": 4723, "Ġpresence": 4724, "ĠJewish": 4725, "anging": 4726, "!!": 4727, "ĠSil": 4728, "Ð°": 4729, "tery": 4730, "Ðµ": 4731, "ception": 4732, "ĠAfrica": 4733, "Ġguess": 4734, "ancy": 4735, "Ġwitness": 4736, "itable": 4737, "Ġholding": 4738, "ĠGree": 4739, "Ġestablish": 4740, "Ġlength": 4741, "Ġplanning": 4742, "bre": 4743, "ava": 4744, "ĠAfrican": 4745, "Ġsequ": 4746, "cknow": 4747, "Ġrefuge": 4748, "Ġplaced": 4749, "Ġcatch": 4750, "ĠAfghan": 4751, "Ġsan": 4752, "inter": 4753, "ĠAssociation": 4754, "Ġtells": 4755, "âĢĺ": 4756, "Ġscale": 4757, "ey": 4758, "Ġspokesman": 4759, "Ġtim": 4760, "nel": 4761, "Ġrough": 4762, "Ġattend": 4763, "olly": 4764, "ĠVer": 4765, "Ġcells": 4766, "Ġjoined": 4767, "ĠPre": 4768, "Ġmentioned": 4769, "Ġinterests": 4770, "Ġabuse": 4771, "pective": 4772, "ĠJim": 4773, "More": 4774, "Ġhasn": 4775, "ĠPC": 4776, "Le": 4777, "Ġiniti": 4778, "Ġenforcement": 4779, "Ġkid": 4780, "ĠGOP": 4781, "Ġintroduced": 4782, "Ġdeliver": 4783, "Ġconflict": 4784, "ĠMer": 4785, "ĠMicrosoft": 4786, "Ġphil": 4787, "âĢĶâĢĶ": 4788, "Ġupdate": 4789, "Ġmissing": 4790, "ros": 4791, "Ġproviding": 4792, "Ġwaiting": 4793, "Ġcancer": 4794, "39": 4795, "Ġrecommend": 4796, "ocracy": 4797, "Ġestablished": 4798, "isation": 4799, "Ġeat": 4800, "bour": 4801, "ĠYes": 4802, "Ġoccup": 4803, "ĠFrank": 4804, "ĠJeff": 4805, "ĠAngeles": 4806, "Ġremoved": 4807, "Ġ2005": 4808, "ula": 4809, "Ġoffensive": 4810, "ĠFore": 4811, "ĠInstead": 4812, "icon": 4813, "Ġinjury": 4814, "Ġsports": 4815, "47": 4816, "Ġfant": 4817, "Ġdiscussion": 4818, "vant": 4819, "Ġoperation": 4820, "Ġdownload": 4821, "Ġuseful": 4822, "Ġnewsp": 4823, "Ġconversation": 4824, "Ġhomes": 4825, "ronic": 4826, "Ġsouth": 4827, "Ġcook": 4828, "ĠCEO": 4829, "Ġassess": 4830, "ĠGroup": 4831, "itz": 4832, "formation": 4833, "lig": 4834, "Ġbanks": 4835, "onto": 4836, "Ġstopped": 4837, "ĠStep": 4838, "ĠConst": 4839, "Ġobvious": 4840, "ications": 4841, "Ġmeasures": 4842, "Ġmodels": 4843, "ĠKh": 4844, "Ġfourth": 4845, "ĠMP": 4846, "Our": 4847, "season": 4848, "DA": 4849, "what": 4850, "Ġbul": 4851, "anda": 4852, "Ġ2018": 4853, "Ġfiles": 4854, "Ġgirls": 4855, "ĠLouis": 4856, "Ġstick": 4857, "cks": 4858, "azine": 4859, "mail": 4860, "umn": 4861, "Ġmanaged": 4862, "iter": 4863, "apped": 4864, "ĠPalestin": 4865, "oted": 4866, "Ġfigures": 4867, "oms": 4868, "ĠTim": 4869, "ĠLeg": 4870, "Ġidentified": 4871, "Ġgraph": 4872, "ĠJud": 4873, "ĠSal": 4874, "Ġfinished": 4875, "Ġfunds": 4876, "Pl": 4877, "ĠPakistan": 4878, "real": 4879, "Ġsetting": 4880, "Ġconclud": 4881, "Ġprefer": 4882, "Ġhair": 4883, "Ġcommitted": 4884, "ĠMexico": 4885, "49": 4886, "Ġskills": 4887, "kin": 4888, "Ġappropri": 4889, "Ġspirit": 4890, "ĠRock": 4891, "Ġveter": 4892, "Ġfocused": 4893, "Ġarrived": 4894, "ĠTHE": 4895, "Ġhousing": 4896, "ĠVirgin": 4897, "Ġkeeping": 4898, "Ġtherefore": 4899, "Ġacknow": 4900, "Ġdetect": 4901, "ulate": 4902, "Des": 4903, "Ġpartner": 4904, "Ġexclus": 4905, "igan": 4906, "ĠAndroid": 4907, "enses": 4908, "ups": 4909, "Ġearth": 4910, "Ġtransl": 4911, "outs": 4912, "place": 4913, "Ġtough": 4914, "ĠJapanese": 4915, "Ġ2000": 4916, "Ġrelatively": 4917, "Ã¡": 4918, "ĠSupreme": 4919, "owl": 4920, "wing": 4921, "Ġidentity": 4922, "Ġfeels": 4923, "rd": 4924, "ĠMet": 4925, "Ġotherwise": 4926, "Ġsurvey": 4927, "RA": 4928, "ĠRyan": 4929, "ocal": 4930, "ication": 4931, "itutional": 4932, "Ġprotection": 4933, "agn": 4934, "Ġexchange": 4935, "Ġowner": 4936, "isf": 4937, "Trump": 4938, "Ġsteps": 4939, "ĠInter": 4940, "Ġtrip": 4941, "imb": 4942, "Ġhusband": 4943, "ĠMont": 4944, "Ġtweet": 4945, "Ġconnection": 4946, "ĠArmy": 4947, "Ġslightly": 4948, "ĠProf": 4949, "eah": 4950, "ka": 4951, "Ġweak": 4952, "ĠGovernment": 4953, "verse": 4954, "\":": 4955, "Ġcircum": 4956, "Ġelements": 4957, "Ġclick": 4958, "ĠRichard": 4959, "Ġstrike": 4960, "Ġphotos": 4961, "ga": 4962, "Ġmere": 4963, "Ġdefensive": 4964, "dden": 4965, "gar": 4966, "Ġgain": 4967, "Ġfle": 4968, "Ġdepend": 4969, "ucky": 4970, "Ġcollection": 4971, "onym": 4972, "hens": 4973, "Ġkilling": 4974, "Ġroll": 4975, "ighter": 4976, "Go": 4977, "Ġcorner": 4978, "ĠMartin": 4979, "ancing": 4980, "odies": 4981, "Ġsuggests": 4982, "uct": 4983, "Ġaggress": 4984, "with": 4985, "prof": 4986, "Ġguard": 4987, "Photo": 4988, "Ġgender": 4989, "makers": 4990, "ĠCollege": 4991, "Ġcommission": 4992, "ĠAlthough": 4993, "range": 4994, "Ġdat": 4995, "ĠSur": 4996, "46": 4997, "ĠIr": 4998, "ĠDec": 4999, "Ġmental": 5000, "icide": 5001, "Ġamazing": 5002, "rees": 5003, "ĠSub": 5004, "hi": 5005, "Ġplanet": 5006, "ĠTeam": 5007, "rency": 5008, "ĠOut": 5009, "Ġbigger": 5010, "Ġfailure": 5011, "ym": 5012, "ĠJose": 5013, "Ġsupply": 5014, "Why": 5015, "ania": 5016, "ĠNor": 5017, "Ġstarts": 5018, "gers": 5019, "Ġsides": 5020, "hedul": 5021, "iser": 5022, "Ġfamiliar": 5023, "Ġremind": 5024, "Ġsust": 5025, "Ġspect": 5026, "ils": 5027, "uate": 5028, "Ġspeaking": 5029, "ano": 5030, "Ġtalks": 5031, "Ġhappening": 5032, "mas": 5033, "gypt": 5034, "Ġorganizations": 5035, "Ġhate": 5036, "Ġwindow": 5037, "Ġarmy": 5038, "ĠGood": 5039, "ĠJoe": 5040, "Ġnone": 5041, "uke": 5042, "Ġtaxes": 5043, "Ġplanned": 5044, "ĠPet": 5045, "Ġthanks": 5046, "ĠMary": 5047, "Ġstruct": 5048, "Ġpit": 5049, "Ġdecide": 5050, "Ġsudden": 5051, "Ġwish": 5052, "lo": 5053, "Ġcrew": 5054, "Ġcarried": 5055, "Ġappoint": 5056, "oston": 5057, "Ġpet": 5058, "awn": 5059, "eless": 5060, "agues": 5061, "ynam": 5062, "Ġregist": 5063, "TC": 5064, "Ġmulti": 5065, "idering": 5066, "Ġhelping": 5067, "Last": 5068, "Ġaward": 5069, "Ġstandards": 5070, "Ġ32": 5071, "ĠFire": 5072, "Ġrevolution": 5073, "Ġenvironmental": 5074, "].": 5075, "ĠWeb": 5076, "arsh": 5077, "ĠThomas": 5078, "olit": 5079, "Ġscript": 5080, "pm": 5081, "ola": 5082, "Ġseconds": 5083, "gn": 5084, "run": 5085, "ĠResearch": 5086, "Ġscientific": 5087, "ĠBern": 5088, "Ġimmigration": 5089, "Ġstanding": 5090, "ĠTheir": 5091, "Ġ45": 5092, "stream": 5093, "ocol": 5094, "Ġque": 5095, "Ġbeer": 5096, "Ġdomestic": 5097, "imal": 5098, "adium": 5099, "Ġpair": 5100, "uters": 5101, "ĠAlso": 5102, "ĠSecretary": 5103, "ĠUs": 5104, "Ġacadem": 5105, "Ġcold": 5106, "Ġvariety": 5107, "Ġmarkets": 5108, "Ġsch": 5109, "fe": 5110, "HL": 5111, "Ġterrit": 5112, "Ġdropped": 5113, "Ġaccounts": 5114, "!\"": 5115, "ĠAtlant": 5116, "Ġfiled": 5117, "erous": 5118, "acks": 5119, "illa": 5120, "Ġbalance": 5121, "Ġimpossible": 5122, "ĠTer": 5123, "aven": 5124, "Ġinteract": 5125, "Ġneighborhood": 5126, "Ġdegree": 5127, "Read": 5128, "Ġturns": 5129, "ores": 5130, "itect": 5131, "Ġpossibly": 5132, "Ġappre": 5133, "Ġoperating": 5134, "Ġprinc": 5135, "Ġalternative": 5136, "Ġunion": 5137, "Ġvotes": 5138, "Ġvul": 5139, "ader": 5140, "Ġprofessor": 5141, "Ġtack": 5142, "ĠService": 5143, "Ġincreasingly": 5144, "ayer": 5145, "ruit": 5146, "Ġapply": 5147, "Ġfellow": 5148, "Ġcuts": 5149, "stein": 5150, "Ġhonest": 5151, "ĠPrime": 5152, "Ġunivers": 5153, "Ġserver": 5154, "vis": 5155, "Ġdevelopers": 5156, "arks": 5157, "ĠSyrian": 5158, "Ġapparently": 5159, "abb": 5160, "aren": 5161, "Ġlived": 5162, "Ġchanging": 5163, "Ġworry": 5164, "rastructure": 5165, "ĠCarolina": 5166, "Ġtests": 5167, "Ġunits": 5168, "Ġrich": 5169, "ĠTwo": 5170, "cious": 5171, "icted": 5172, "From": 5173, "aded": 5174, "Ġhumans": 5175, "IM": 5176, "ĠFoundation": 5177, "ĠMos": 5178, "Ġagencies": 5179, "Ġsounds": 5180, "ashed": 5181, "Ġtwice": 5182, "Ġultimately": 5183, "obby": 5184, "Ġlosing": 5185, "Ġphilos": 5186, "Ġauthority": 5187, "Ġsoldiers": 5188, "ãĥ": 5189, "Ġanimal": 5190, "gu": 5191, "ĠImages": 5192, "Ġsettle": 5193, "Ġath": 5194, "Ġschedul": 5195, "Ġmut": 5196, "Ġcolle": 5197, "Ġcorporate": 5198, "Ġabsolutely": 5199, "Ġhealthy": 5200, "Ġpaying": 5201, "och": 5202, "Ġequip": 5203, "iams": 5204, "Ġdeveloping": 5205, "Ġsea": 5206, "ĠTime": 5207, "Ġcloser": 5208, "ĠDen": 5209, "Ġinnov": 5210, "related": 5211, "Ġseeking": 5212, "Ġregarding": 5213, "coh": 5214, "roud": 5215, "Ġskin": 5216, "Ġexpensive": 5217, "ansion": 5218, "Ġpossibility": 5219, "Ġbeautiful": 5220, "Ġreligion": 5221, "Ġapart": 5222, "ĠCentral": 5223, "Ġfundament": 5224, "Ġexperts": 5225, "Ġsolar": 5226, "65": 5227, "Ġyards": 5228, "Ġvast": 5229, "Ġwriter": 5230, "Ġflight": 5231, "ĠDistrict": 5232, "ĠLast": 5233, "Ġdeploy": 5234, "Ġadjust": 5235, "Of": 5236, "Ġinternal": 5237, "Ġtast": 5238, "ĠUnder": 5239, "ĠLat": 5240, "31": 5241, "ĠPeter": 5242, "apers": 5243, "Ġimagine": 5244, "ĠJon": 5245, "IV": 5246, "Ġapplications": 5247, "iot": 5248, "ologies": 5249, "Ġvision": 5250, "look": 5251, "state": 5252, "osen": 5253, "ĠFrancisco": 5254, "ĠToronto": 5255, "den": 5256, "Ġsitting": 5257, "ĠPlan": 5258, "Ġtrail": 5259, "Ġunless": 5260, "ĠUSA": 5261, "ĠJes": 5262, "isted": 5263, "Ġheat": 5264, "Ġ2004": 5265, "Even": 5266, "Ġresponsibility": 5267, "Ġcapacity": 5268, "IP": 5269, "atures": 5270, "ĠMiddle": 5271, "Ġerror": 5272, "aine": 5273, "ias": 5274, "Ġsymb": 5275, "Ġfol": 5276, "Ġarms": 5277, "Ġpil": 5278, "Ġgar": 5279, "pire": 5280, "Ġcovered": 5281, "idden": 5282, "ĠBur": 5283, "Ġfamous": 5284, "ĠCamp": 5285, "Ġforms": 5286, "uzz": 5287, "ND": 5288, "Ġuniversity": 5289, "Ġguarant": 5290, "Ġtight": 5291, "Ġpresented": 5292, "ortion": 5293, "oving": 5294, "enced": 5295, "ĠST": 5296, "ĠEgypt": 5297, "Ġearn": 5298, "ĠPut": 5299, "Ġconvention": 5300, "under": 5301, "Just": 5302, "ĠPublic": 5303, "Ġsurprise": 5304, "Ġattorney": 5305, "Ġelections": 5306, "Ġestimated": 5307, "Ġfif": 5308, "ĠAri": 5309, "Ġteen": 5310, "Ġinstit": 5311, "Ġvehicles": 5312, "rible": 5313, "ĠAmazon": 5314, "road": 5315, "Ġintended": 5316, "Ġrid": 5317, "Ġodd": 5318, "Ġhelps": 5319, "Ġoccurred": 5320, "person": 5321, "Ġstreets": 5322, "uster": 5323, "hand": 5324, "ini": 5325, "ĠBoston": 5326, "ĠSol": 5327, "Ġ=>": 5328, "=\"": 5329, "ĠMur": 5330, "Ġsport": 5331, "sen": 5332, "Ġdetermine": 5333, "ressive": 5334, "ĠBitcoin": 5335, "Ġexpert": 5336, "alls": 5337, "Ġconsult": 5338, "uration": 5339, "Ġbroken": 5340, "Let": 5341, "lets": 5342, "Ġfired": 5343, "Ġton": 5344, "Ġflow": 5345, "Ġdomin": 5346, "ĠGal": 5347, "porary": 5348, "eder": 5349, "LE": 5350, "Ġshall": 5351, "Ġreserv": 5352, "Up": 5353, "Ġtroops": 5354, "ION": 5355, "ĠThose": 5356, "Ġhyp": 5357, "Ġnar": 5358, "terday": 5359, "Ġpieces": 5360, "ĠChief": 5361, "Ġprepared": 5362, "ĠMass": 5363, "ĠCath": 5364, "Ġrapid": 5365, "gl": 5366, "orage": 5367, "ĠJo": 5368, "Ġlocated": 5369, "ĠSocial": 5370, "Ġbaby": 5371, "----------------": 5372, "Ġconclus": 5373, "Ġbringing": 5374, "anche": 5375, "ĠProt": 5376, "Ġprove": 5377, "Ġspecifically": 5378, "ĠAny": 5379, "Ġpotentially": 5380, "Ġsector": 5381, "Ġrandom": 5382, "Ġjail": 5383, "OW": 5384, "Ġselling": 5385, "Ġgovernments": 5386, "ĠOnce": 5387, "Ġscr": 5388, "Ab": 5389, "Ġequal": 5390, "class": 5391, "war": 5392, "Ġfaster": 5393, "Ġheav": 5394, "ĠSpr": 5395, "Ġboost": 5396, "useum": 5397, "vey": 5398, "Ġclin": 5399, "Ġproposal": 5400, "oty": 5401, "Ġfactors": 5402, "Ġplenty": 5403, "TH": 5404, "Ġequipment": 5405, "Ġcouncil": 5406, "Ġera": 5407, "Ġinfrastructure": 5408, "Do": 5409, "Ġstress": 5410, "phas": 5411, "Ġstars": 5412, "ĠJournal": 5413, "ĠRub": 5414, "endment": 5415, "ĠVirginia": 5416, "Ġbreat": 5417, "Ġprosecut": 5418, "Ġvoted": 5419, "Ġoffering": 5420, "Ġcarbon": 5421, "inent": 5422, "Ġexpressed": 5423, "Ġvulner": 5424, "Ġcombat": 5425, "ĠParis": 5426, "Ġbroke": 5427, "()": 5428, "ureau": 5429, "Ġclot": 5430, "ours": 5431, "Ġruling": 5432, "ĠFederal": 5433, "Ġretail": 5434, "ĠGuard": 5435, "Ġrefused": 5436, "Ġdram": 5437, "ĠDan": 5438, "Ġelected": 5439, "ĠOpen": 5440, "ĠRiver": 5441, "Every": 5442, "Ġsecure": 5443, "cean": 5444, "Ġseasons": 5445, "Ġconducted": 5446, ",'": 5447, "ht": 5448, "Ġchallenges": 5449, "Ġremove": 5450, "isher": 5451, "ĠSant": 5452, "Ġmethods": 5453, "Ġweapon": 5454, "noon": 5455, "Ġpointed": 5456, "ĠIsland": 5457, "Ġmaster": 5458, "Ġremained": 5459, "ĠAustralian": 5460, "Ġprime": 5461, "ENT": 5462, "Ġtrig": 5463, "Ġpositions": 5464, "ĠCru": 5465, "Ġdin": 5466, "ĠMel": 5467, "Ġcriticism": 5468, "ipping": 5469, "First": 5470, "ocking": 5471, "ĠMedic": 5472, "ĠPlease": 5473, "rog": 5474, "onom": 5475, "IG": 5476, "Ġsale": 5477, "olved": 5478, "ĠFe": 5479, "Ġcultural": 5480, "that": 5481, "Ġweren": 5482, "Ġsignificantly": 5483, "Ġbrow": 5484, "etic": 5485, "Ġoriginally": 5486, "rie": 5487, "ĠDuring": 5488, "Ġaffected": 5489, "Ġappearance": 5490, "Ġcas": 5491, "Ġtourn": 5492, "Ġfacing": 5493, "Ġgreatest": 5494, "Ġfinish": 5495, "ĠLee": 5496, "Ġstret": 5497, "yr": 5498, "Ġyouth": 5499, "Ġtele": 5500, "ĠWho": 5501, "ĠCur": 5502, "Ġpercentage": 5503, "ĠPhoto": 5504, "col": 5505, "Ġdetermined": 5506, "Ġsigns": 5507, "Ġinvolve": 5508, "95": 5509, "cel": 5510, "Ð¸": 5511, "64": 5512, "Ġthank": 5513, "Ġbought": 5514, "Ġ500": 5515, "lyn": 5516, "ĠSing": 5517, "standing": 5518, "Ġchemical": 5519, "ashion": 5520, "Ġshape": 5521, "Ġvir": 5522, "Ġregime": 5523, "Ġgrew": 5524, "pired": 5525, "Ġremaining": 5526, "ĠSteve": 5527, "lymp": 5528, "Ġminimum": 5529, "ĠSaud": 5530, "reens": 5531, "Ġindeed": 5532, "Ġdream": 5533, "rier": 5534, "Since": 5535, "Ġmarg": 5536, "Sp": 5537, "ĠBoth": 5538, ">>": 5539, "Ġmode": 5540, "Ġherself": 5541, "Ġvoting": 5542, "ĠColor": 5543, "Ġobviously": 5544, "ĠForce": 5545, "Ġreduced": 5546, "ordin": 5547, "ĠNov": 5548, "Ġwood": 5549, "ĠRem": 5550, "Ġrecorded": 5551, "Ġargued": 5552, "Ġ1990": 5553, "Ġrevenue": 5554, "Ġtact": 5555, "ĠRo": 5556, "Ġwearing": 5557, "aling": 5558, "ighters": 5559, "Ġleads": 5560, "edia": 5561, "Ġhun": 5562, "Ġpoliticians": 5563, "Ġplus": 5564, "Ġcontrast": 5565, "Ġswitch": 5566, "Ġhandle": 5567, "Ġpurchase": 5568, "Ġthr": 5569, "Ġsubs": 5570, "Ġconcent": 5571, "Ġproced": 5572, "ÑĤ": 5573, "Ġagent": 5574, "arp": 5575, "ĠWilliams": 5576, "Ġappreci": 5577, "Ġexperienced": 5578, "Ġhurt": 5579, "top": 5580, "Ġexcited": 5581, "Ġvideos": 5582, "Ġhttps": 5583, "cohol": 5584, "Ġsupporting": 5585, "DP": 5586, "ĠHaw": 5587, "mm": 5588, "ownt": 5589, "ĠFree": 5590, "Ġsurprising": 5591, "Ġminute": 5592, "odd": 5593, "Ġexplos": 5594, "Ġbelong": 5595, "Ġconsumers": 5596, "Ġidentify": 5597, "Ġconsidering": 5598, "ĠPac": 5599, "ĠConserv": 5600, "ller": 5601, "apter": 5602, "Ġaircraft": 5603, "Ġrent": 5604, "Ġaid": 5605, "CL": 5606, "Ġpulled": 5607, "gment": 5608, "Ġbasically": 5609, "Ġdifferences": 5610, "ogue": 5611, "ĠBook": 5612, "Ġglass": 5613, "Ġafternoon": 5614, "Ġshift": 5615, "Ġdiss": 5616, "ĠRad": 5617, "Ġdepart": 5618, "Ġends": 5619, "essions": 5620, "Ġturning": 5621, "Ġbound": 5622, "Ġfilms": 5623, "Ġspring": 5624, "Ġprospect": 5625, "ruption": 5626, "ket": 5627, "ĠCharl": 5628, "hab": 5629, "Ġmort": 5630, "05": 5631, "life": 5632, "Ġtreated": 5633, "Ġaccident": 5634, ",[": 5635, "01": 5636, "Ġmotiv": 5637, "Ġlisten": 5638, "Ġseat": 5639, "ĠPower": 5640, "uts": 5641, "Ġcombined": 5642, "Ġconstruct": 5643, "Ind": 5644, "Ġseriously": 5645, "Ġprivacy": 5646, "apping": 5647, "Ġevening": 5648, "hered": 5649, "hy": 5650, "Ġopportunities": 5651, "asp": 5652, "Ġstruggle": 5653, "Ġ195": 5654, "Ġpanel": 5655, "Ġenemy": 5656, "Ġlots": 5657, "Ġcompleted": 5658, "ĠDaily": 5659, "Ġvisual": 5660, "His": 5661, "Phone": 5662, "pet": 5663, "Ġtalked": 5664, "Ġcart": 5665, "Ġhopes": 5666, "oral": 5667, "Ġpassing": 5668, "Ġid": 5669, "Ġapps": 5670, "osite": 5671, "PD": 5672, "Ġcalcul": 5673, "Another": 5674, "Ġwidely": 5675, "ensions": 5676, "Ġemergency": 5677, "ĠHol": 5678, "ĠShow": 5679, "Ġsuit": 5680, "Ġelement": 5681, "amm": 5682, "Ġast": 5683, "anged": 5684, "SS": 5685, "aled": 5686, "ucks": 5687, "Ġpowers": 5688, "ato": 5689, "ĠRel": 5690, "ĠBBC": 5691, "ĠOlymp": 5692, "Ġburn": 5693, "TV": 5694, "Ġdiscl": 5695, "Pe": 5696, "Ġplants": 5697, "Ġflat": 5698, "ĠSpace": 5699, "Ġliberal": 5700, "raud": 5701, "obe": 5702, "Ġopposed": 5703, "Well": 5704, "Ġproceed": 5705, "ompl": 5706, "Ġcopyright": 5707, "oking": 5708, "ĠProject": 5709, "Ġadvance": 5710, "Ġfactor": 5711, "Ġdistance": 5712, "Ġ2003": 5713, "ivered": 5714, "Ġdismiss": 5715, "plom": 5716, "Ġattempts": 5717, "Ġtun": 5718, "ĠMatt": 5719, "ĠRoad": 5720, "abilities": 5721, "Am": 5722, "ributed": 5723, "ĠIN": 5724, "Ġtrouble": 5725, "unction": 5726, "Ġhol": 5727, "Ġcollabor": 5728, "Ġdefault": 5729, "sts": 5730, "idel": 5731, "ĠBet": 5732, "Ġzone": 5733, "ĠJackson": 5734, "Ġupgr": 5735, "rawn": 5736, "ita": 5737, "Cont": 5738, "Ġreaction": 5739, "Ġstorm": 5740, "Ġreporters": 5741, "ĠMem": 5742, "Ġfrust": 5743, "PR": 5744, "nell": 5745, "mosp": 5746, "adow": 5747, "Ġwrites": 5748, "mond": 5749, "aints": 5750, "Ġtypically": 5751, "ĠToday": 5752, "lines": 5753, "respond": 5754, "UT": 5755, "Ġpages": 5756, "Ġinstruct": 5757, "ternal": 5758, "eds": 5759, "Ġreference": 5760, "Ġpackage": 5761, "Ġbodies": 5762, "zer": 5763, "Ġmatters": 5764, "free": 5765, "42": 5766, "Ġdenied": 5767, "care": 5768, "edd": 5769, "App": 5770, "Ġquant": 5771, "Ġdisappoint": 5772, "Ġsem": 5773, "Ġexplo": 5774, "ĠNAS": 5775, "Ġoptim": 5776, "ache": 5777, "Ġquiet": 5778, "Ġentertain": 5779, "Ġmal": 5780, "Ġresponded": 5781, "Ġapproved": 5782, "ĠTurkey": 5783, "Ġsatisf": 5784, "aped": 5785, "Ġbroadcast": 5786, "esters": 5787, "Ġinstitutions": 5788, "Ġadvert": 5789, "Ġstands": 5790, "ĠDirector": 5791, "Ġsets": 5792, "estival": 5793, "Ġelimin": 5794, "isters": 5795, "razy": 5796, "Ã¤": 5797, "Rep": 5798, "ĠPenn": 5799, "Ġvalid": 5800, "host": 5801, "Ġrenew": 5802, "ĠOhio": 5803, "elly": 5804, "0000": 5805, "Ġsplit": 5806, "Ġsevere": 5807, "ĠWilliam": 5808, "Ġsac": 5809, "Ġcapable": 5810, "Ġ2001": 5811, "Ġ//": 5812, "Ġpitch": 5813, "abin": 5814, "aniel": 5815, "Ġcaption": 5816, "Ġcloud": 5817, "Ġloved": 5818, "Ġtechnical": 5819, "Ġgiant": 5820, "pass": 5821, "Ġcann": 5822, "Ġtradition": 5823, "rant": 5824, "Ġprompt": 5825, "Ġbull": 5826, "Ġconfident": 5827, "uous": 5828, "Ġconfidence": 5829, "Ġnumerous": 5830, "Ġreportedly": 5831, "ĠMa": 5832, "Ġfaces": 5833, "],": 5834, "writ": 5835, "Ġweather": 5836, "Ġfly": 5837, "Ġtransition": 5838, "rid": 5839, "Ġ36": 5840, "ĠSystem": 5841, "ĠAfghanistan": 5842, "Ġgra": 5843, "ĠSqu": 5844, "Ġcreation": 5845, "De": 5846, "Ġperspective": 5847, "Ġunable": 5848, "Ġforget": 5849, "ĠLabour": 5850, "ĠYet": 5851, "43": 5852, "astern": 5853, "employ": 5854, "oken": 5855, "ĠMedia": 5856, "angers": 5857, "II": 5858, "unte": 5859, "Ġcraft": 5860, "Ġsubstant": 5861, "Ġcooper": 5862, "Ġviolent": 5863, "Ġsuffered": 5864, "ilit": 5865, "Ġcoast": 5866, "Ġmand": 5867, "ampion": 5868, "Ġpictures": 5869, "Ġexperiences": 5870, "Ġapprox": 5871, "abled": 5872, "Ġroute": 5873, "88": 5874, "sex": 5875, "Ġflag": 5876, "Ġadvice": 5877, "ĠAndrew": 5878, "usiness": 5879, "Ġdeclared": 5880, "ĠWal": 5881, "Ġordered": 5882, "ĠHuman": 5883, "razil": 5884, "Ġcrimes": 5885, "Ġcoff": 5886, "Se": 5887, "Ġproud": 5888, "ishes": 5889, "Ġreporting": 5890, "Ġmessages": 5891, "Ġcircumst": 5892, "Ġfindings": 5893, "ĠLin": 5894, "Res": 5895, "Ġeval": 5896, "ulations": 5897, "Ġexcell": 5898, "Over": 5899, "Ġdeclined": 5900, "Ġexplains": 5901, "Ġdelay": 5902, "Ġ\\": 5903, "ĠFollow": 5904, "Ġnewspaper": 5905, "ounded": 5906, "Ġconnected": 5907, "ilty": 5908, "Ġshouldn": 5909, "evin": 5910, "oves": 5911, "Ġongoing": 5912, "can": 5913, "Ġvan": 5914, "dule": 5915, "Ġmovies": 5916, "Ġpicked": 5917, "ionally": 5918, "resents": 5919, "77": 5920, "Ġadmitted": 5921, "Ġdelivered": 5922, "During": 5923, "Ġguns": 5924, "ĠML": 5925, "ĠScot": 5926, "Ġwalking": 5927, "Ġagents": 5928, "called": 5929, "Ġprin": 5930, "tion": 5931, "Ġeditor": 5932, "Ġthoughts": 5933, "Ġmarried": 5934, "ĠTra": 5935, "Ġauth": 5936, "Ġemails": 5937, "Ġappropriate": 5938, "Ġemphas": 5939, "uations": 5940, "Ġedge": 5941, "Ġarchitect": 5942, "ĠGrand": 5943, "Ġleaves": 5944, "Ġupdates": 5945, "Ġaccompl": 5946, "OD": 5947, "Ġgather": 5948, "ĠMuslims": 5949, "Ġforg": 5950, "ansas": 5951, "ĠWood": 5952, "Ġquarterback": 5953, "Ġsession": 5954, "ooth": 5955, "41": 5956, "ĠTechn": 5957, "Ġpool": 5958, "ĠScience": 5959, "cos": 5960, "Ġinjured": 5961, "arn": 5962, "Ġpublicly": 5963, "ellow": 5964, "ĠSov": 5965, "Ġstatements": 5966, "Ġperman": 5967, "Ġlegit": 5968, "arl": 5969, "nergy": 5970, "MA": 5971, "Ġconfirm": 5972, "ĠLake": 5973, "Ġourselves": 5974, "Other": 5975, "Ġrealize": 5976, "Ġrot": 5977, "Ġdrivers": 5978, "ĠAv": 5979, "ĠDou": 5980, "TA": 5981, "mates": 5982, ",âĢĻ": 5983, "Ġarmed": 5984, "essor": 5985, "Ġdial": 5986, "cons": 5987, "Ġlawyer": 5988, "ourney": 5989, "Ġrail": 5990, "Ġreaders": 5991, "reland": 5992, "Ġsad": 5993, "Ġcontains": 5994, "Ġargue": 5995, "ĠRev": 5996, "Ġtalent": 5997, "Ġfilled": 5998, "ĠSum": 5999, "Ġallegations": 6000, "Ġactivists": 6001, "ĠChristmas": 6002, "Ġdynam": 6003, "Ġ1980": 6004, "ĠMichigan": 6005, "date": 6006, "ĠBack": 6007, "ĠRon": 6008, "Ġcrack": 6009, "Ġtransform": 6010, "Tube": 6011, "ĠIll": 6012, "Ġbuildings": 6013, "ĠRead": 6014, "long": 6015, "Ġwear": 6016, "Many": 6017, "Ġterrorist": 6018, "Ġsam": 6019, "Ġtree": 6020, "Ġexercise": 6021, "enda": 6022, "Ġlabel": 6023, "Ġeffectively": 6024, "Oh": 6025, "Ġpractices": 6026, "ala": 6027, "Ġsubsequ": 6028, "ĠJul": 6029, "ĠSher": 6030, "uls": 6031, "Ġflo": 6032, "TS": 6033, "Ġfish": 6034, "ette": 6035, "enture": 6036, "Ġshop": 6037, "Ġexamples": 6038, "ĠHy": 6039, "Ġpatient": 6040, "ĠGen": 6041, "ĠSeattle": 6042, "Ġobjects": 6043, "Ġtech": 6044, "ĠSee": 6045, "Ġsecretary": 6046, "asure": 6047, "Ġrain": 6048, "Ġmissed": 6049, "Ġcauses": 6050, "illy": 6051, "rum": 6052, "Ġdebut": 6053, "ĠRod": 6054, "gia": 6055, "Ġessentially": 6056, "66": 6057, "amin": 6058, "Ġmoral": 6059, "orders": 6060, "ador": 6061, "word": 6062, "acter": 6063, "ĠWork": 6064, "def": 6065, "arters": 6066, "ĠUkraine": 6067, "Ġcentre": 6068, "Follow": 6069, "ĠVict": 6070, "bur": 6071, "ĠStan": 6072, "ĠID": 6073, "icing": 6074, "Ġinjuries": 6075, "ĠPhot": 6076, "Ġmotor": 6077, "ĠiPhone": 6078, "Ġartist": 6079, "Ġclient": 6080, "Ġbond": 6081, "Ġthinks": 6082, "iat": 6083, "orse": 6084, "ouston": 6085, "Ġpure": 6086, "Ġhell": 6087, "Although": 6088, "ĠSaudi": 6089, "Ġfacts": 6090, "Ĥ¬": 6091, "Ġdesire": 6092, "agers": 6093, "aza": 6094, "Ġske": 6095, "orry": 6096, "Ġlinked": 6097, "ÃŃ": 6098, "Ġgovernor": 6099, "Ġmaterials": 6100, "Ġperformed": 6101, "Spe": 6102, "Ġfranch": 6103, "esome": 6104, "Ġsuc": 6105, "Ġphilosoph": 6106, "Ġinitially": 6107, "iest": 6108, "ĠSign": 6109, "Ġnecessarily": 6110, "ĠBat": 6111, "ĠFer": 6112, "Ġexpansion": 6113, "Ġscheduled": 6114, "water": 6115, "ERS": 6116, "Ġwarned": 6117, "Ġdiplom": 6118, "Ġadvanced": 6119, "Ġing": 6120, "Ġexplan": 6121, "Ġvari": 6122, "Ġeverybody": 6123, "Ġjoint": 6124, "Ġdecre": 6125, "Ġresolution": 6126, "Ġincreases": 6127, "enger": 6128, "Yes": 6129, "Ġaccepted": 6130, "Ġincor": 6131, "Ġmyster": 6132, "Ġfaced": 6133, "Ġbare": 6134, "illance": 6135, "ĠMount": 6136, "Ġannouncement": 6137, "Ġfollows": 6138, "Ġnations": 6139, "Ġplayoff": 6140, "ĠLife": 6141, "Ġabandon": 6142, "ĠSecond": 6143, "Ġradical": 6144, "Ġathlet": 6145, "Ġneither": 6146, "Ġyesterday": 6147, "gent": 6148, "Ġdatab": 6149, "Ġnearby": 6150, "Ġdistribution": 6151, "otic": 6152, "Ġapplied": 6153, "irty": 6154, "Ġmagazine": 6155, "Most": 6156, "athan": 6157, "rich": 6158, "Ġmir": 6159, "Ġconsequences": 6160, "Ġdoctor": 6161, "Ġlisted": 6162, "Ġfort": 6163, "uy": 6164, "ĠColumb": 6165, "Ġatmosp": 6166, "American": 6167, "Ġsurprised": 6168, "Ġoffense": 6169, "Qu": 6170, "itors": 6171, "ĠCNN": 6172, "ĠRE": 6173, "Ġspons": 6174, "Ġbegins": 6175, "ĠWeek": 6176, "Ġthreats": 6177, "sembly": 6178, "Ġrepresents": 6179, "ĠJews": 6180, "ĠGM": 6181, "ĠAff": 6182, "Ġenh": 6183, "Ġmoves": 6184, "Ġremark": 6185, "ĠTO": 6186, "Ġpra": 6187, "Ġsongs": 6188, "kay": 6189, "Ġchart": 6190, "Ġbehavi": 6191, "omin": 6192, "Ġride": 6193, "Ġadds": 6194, "Ġwithd": 6195, "Can": 6196, "ÃĤ": 6197, "Ġimproved": 6198, "Ġphen": 6199, "ĠBlue": 6200, "Ġbot": 6201, "Ġwarm": 6202, "Ġaf": 6203, "Ġalcohol": 6204, "rip": 6205, "ĠAT": 6206, "Ġoutput": 6207, "law": 6208, "Ġflood": 6209, "ĠDevelop": 6210, "ĠHen": 6211, "whel": 6212, "edy": 6213, "Ġshots": 6214, "Ġfill": 6215, "ĠVol": 6216, "Ġalt": 6217, "Ġstood": 6218, "Ġbrings": 6219, "Ġpushed": 6220, "Ġguilty": 6221, "ĠRomney": 6222, "ĠKim": 6223, "Ġsubscrib": 6224, "85": 6225, "Ġentry": 6226, "ocratic": 6227, "ĠBrazil": 6228, "Ġdemocracy": 6229, "Ġboys": 6230, "Ġ33": 6231, "Ġrow": 6232, "ĠSwed": 6233, "Ġconfig": 6234, "Ġrestaurant": 6235, "ĠNBA": 6236, "Ġlawsuit": 6237, "ĠDev": 6238, "ĠIreland": 6239, "acle": 6240, "Ġmanufacture": 6241, "Ġreceiving": 6242, "Ġrein": 6243, "ĠBarack": 6244, "Then": 6245, "Ġtrib": 6246, "Ġtotally": 6247, "ĠOnly": 6248, "Ġdiscussed": 6249, "Ġsought": 6250, "Ġrising": 6251, "Ġentered": 6252, "ĠISIS": 6253, "ĠBoard": 6254, "Ġconsistent": 6255, "Ġhistorical": 6256, "twitter": 6257, "ideo": 6258, "Ġstorage": 6259, "Ġcorrespond": 6260, "Ġplane": 6261, "Ġcombination": 6262, "Ġscored": 6263, "Ġinput": 6264, "Ġ300": 6265, "Ġsymbol": 6266, "Ġbright": 6267, "Ġbutton": 6268, "irds": 6269, "Ġsucceed": 6270, "stood": 6271, "Ġcreative": 6272, "Ġinvestors": 6273, "Ġsquare": 6274, "Ġarticles": 6275, "Ġ2002": 6276, "Ġisland": 6277, "mes": 6278, "Ġdeaths": 6279, "Ġfunctions": 6280, "Ġnetworks": 6281, "Ġclasses": 6282, "Ġunlikely": 6283, "alty": 6284, "Ġheads": 6285, "ician": 6286, "Ġboss": 6287, "Ġnative": 6288, "icious": 6289, "Ġlie": 6290, "Ġsav": 6291, "ĠLib": 6292, "Ġroughly": 6293, "Ġconsumer": 6294, "ĠStr": 6295, "ĠWhe": 6296, "ĠWalk": 6297, "ĠPrem": 6298, "fortunately": 6299, "ĠMs": 6300, "Ġstring": 6301, "ĠMaybe": 6302, "Ġheavily": 6303, "ĠAnother": 6304, "Ġfairly": 6305, "Ġtemperature": 6306, "arden": 6307, "Ġkit": 6308, "Ġexistence": 6309, "ĠIts": 6310, "ĠAsia": 6311, "Ġcontest": 6312, "Add": 6313, "Ġplot": 6314, "issions": 6315, "dis": 6316, "ĠCub": 6317, "Ġresident": 6318, "usal": 6319, "Ġtargets": 6320, "ĠBob": 6321, "Ġresc": 6322, "ĠKorean": 6323, "ican": 6324, "duc": 6325, "Ġlock": 6326, "Ġyounger": 6327, "Man": 6328, "',": 6329, "Ġcolleagues": 6330, "PU": 6331, "Ġlibrary": 6332, "Ã¶": 6333, "Ġrally": 6334, "Ġparliament": 6335, "Ġprotests": 6336, "Ġanywhere": 6337, "oked": 6338, "ĠSports": 6339, "ĠSky": 6340, "Ġbike": 6341, "zona": 6342, "Ġbreaking": 6343, "ii": 6344, "Ġgrab": 6345, "Ġsym": 6346, "Ġstores": 6347, "Ġexpression": 6348, "Ġwaste": 6349, "Ġchain": 6350, "Ġblow": 6351, "Ġwarning": 6352, "Ġimportance": 6353, "Ġdefined": 6354, "Ġbuying": 6355, "Ġmanage": 6356, "Ġprohib": 6357, "Ġclassic": 6358, "Ġcere": 6359, "Ġsnow": 6360, "Ġadults": 6361, "Ġillust": 6362, "ĠEach": 6363, "See": 6364, "Ġmarketing": 6365, "Ob": 6366, "Ġlinks": 6367, "Ã³": 6368, "iques": 6369, "Ġshif": 6370, "born": 6371, "andal": 6372, "ĠClub": 6373, "Ġtow": 6374, "ĠHist": 6375, "Ġfraud": 6376, "OC": 6377, "Ġfacility": 6378, "ollywood": 6379, "erences": 6380, "Ġhardware": 6381, "Ġschol": 6382, "Ġallegedly": 6383, "Ġ37": 6384, "Ġregulations": 6385, "pret": 6386, "Ġdoctors": 6387, "Ġbon": 6388, "ĠColorado": 6389, "Ġcurrency": 6390, "Ġhousehold": 6391, "Ġreplaced": 6392, "agan": 6393, "Ġessential": 6394, "opy": 6395, "Ġempt": 6396, "onna": 6397, "ĠRam": 6398, "Ġsomewhat": 6399, "ĠDiv": 6400, "press": 6401, "86": 6402, "Ġnav": 6403, "Ġfavour": 6404, "power": 6405, "Ġpromise": 6406, "ĠDC": 6407, "ĠBoy": 6408, "Ġlaugh": 6409, "ena": 6410, "Pol": 6411, "ĠRights": 6412, "Ġholds": 6413, "Ġopposite": 6414, "ocket": 6415, "Ñģ": 6416, "Ġmoments": 6417, "west": 6418, "Ġhat": 6419, "tering": 6420, "Ġopponent": 6421, "Ġbug": 6422, "ĠFar": 6423, "cho": 6424, "Ġcampus": 6425, "Ġacts": 6426, "Ġrum": 6427, "etroit": 6428, "Ġversions": 6429, "Ġmotion": 6430, "Ġmetal": 6431, "hips": 6432, "Ġevolution": 6433, "ometimes": 6434, "Ġvice": 6435, "anish": 6436, "Ġrelevant": 6437, "Ġsees": 6438, "ĠImage": 6439, "Ġbag": 6440, "Ġindustrial": 6441, "Ġzero": 6442, "IR": 6443, "Ġsick": 6444, "Ġdownt": 6445, "oma": 6446, "Ġclosely": 6447, "ĠAnn": 6448, "hetic": 6449, "Ġemotional": 6450, "chen": 6451, "game": 6452, "IF": 6453, "ĠYouTube": 6454, "ĠYear": 6455, "va": 6456, "Ġfewer": 6457, "Ġdivision": 6458, "olve": 6459, "Ġadm": 6460, "Ġharder": 6461, "Ġcustomer": 6462, "Ġhoping": 6463, "ologist": 6464, "Ġtom": 6465, "ĠBrook": 6466, "Donald": 6467, "En": 6468, "ĠValley": 6469, "Ġhur": 6470, "ĠGra": 6471, "Ġmechanism": 6472, "ittle": 6473, "ml": 6474, "ĠHouston": 6475, "ĠElect": 6476, "inem": 6477, "Ġreturns": 6478, "NC": 6479, "atell": 6480, "Ġvolunte": 6481, "Ġparticipants": 6482, "Ġextent": 6483, "Ġintention": 6484, "po": 6485, "alian": 6486, "esc": 6487, "ellect": 6488, "Ġexcellent": 6489, "ĠSoviet": 6490, "Ġacknowled": 6491, "Ġsyn": 6492, "ulous": 6493, "oming": 6494, "ĠMot": 6495, "Ġbatt": 6496, "ĠGames": 6497, "Ġsquad": 6498, "greg": 6499, "Ġcircumstances": 6500, "pan": 6501, "Ġfashion": 6502, "Ġisol": 6503, "Ã¼": 6504, "otal": 6505, "Ġimmediate": 6506, "ĠEric": 6507, "Ġsuffering": 6508, "ĠWatch": 6509, "str": 6510, "Ġlies": 6511, "Ġtiny": 6512, "Ġauthors": 6513, "Ġ38": 6514, "Ġgrown": 6515, "ĠGar": 6516, "iger": 6517, "efully": 6518, "Ġimmigrants": 6519, "Ãĥ": 6520, "print": 6521, "ora": 6522, "Ġkinds": 6523, "utch": 6524, "Ġ49": 6525, "ĠDie": 6526, "Ġcheap": 6527, "Ġmine": 6528, "Ġdetailed": 6529, "ordan": 6530, "ĠHel": 6531, "name": 6532, "Ġfeatured": 6533, "ĠWik": 6534, "ĠEr": 6535, "ĠSar": 6536, "ayers": 6537, "Ġmeat": 6538, "Ġunus": 6539, "ĠAut": 6540, "Ġcompetitive": 6541, "Ġdescribe": 6542, "Ġformed": 6543, "ĠHome": 6544, "ĠIP": 6545, "friend": 6546, "nic": 6547, "certain": 6548, "Ġcarrying": 6549, "Ġtournament": 6550, "Ġtermin": 6551, "Ġtrick": 6552, "Ġrelationships": 6553, "Ġfundamental": 6554, "kel": 6555, "Ġwave": 6556, "Ġcycle": 6557, "obb": 6558, "Ġcrazy": 6559, "ĠCy": 6560, "Ġsigning": 6561, "ĠWay": 6562, "Ġguide": 6563, "Ġwins": 6564, "ĠCatholic": 6565, "Ġearned": 6566, "08": 6567, "Ġdecline": 6568, "Ġregional": 6569, "nam": 6570, "ensus": 6571, "style": 6572, "Ġembr": 6573, "Ġstrange": 6574, "ĠPalestinian": 6575, "ĠJesus": 6576, "ĠLong": 6577, "Ġancient": 6578, "Ġfrequently": 6579, "06": 6580, "Ġacting": 6581, "ĠPutin": 6582, "Ġmanner": 6583, "Ġefficient": 6584, "rome": 6585, "Ġpushing": 6586, "ĠCIA": 6587, "Ġcomfortable": 6588, "ĠCard": 6589, "Ġpip": 6590, "ORE": 6591, "Per": 6592, "Ġsharing": 6593, "Ġwire": 6594, "Ġskill": 6595, "ĠEconom": 6596, "ockey": 6597, "chers": 6598, "Ġinstru": 6599, "ĠEll": 6600, "Ġowned": 6601, "bar": 6602, "Ġcommitment": 6603, "Ġalongside": 6604, "ĠOF": 6605, "uated": 6606, "anes": 6607, "ĠLord": 6608, "09": 6609, "ĠDavis": 6610, "rison": 6611, "Ġcontroversial": 6612, "Ġartists": 6613, "Ġreferred": 6614, "weight": 6615, "Ġegg": 6616, "Ġmouth": 6617, "Ġrepeatedly": 6618, "Ġ48": 6619, "ĠTop": 6620, "ï¿": 6621, "Ġ34": 6622, "FP": 6623, "awa": 6624, "Ġattempted": 6625, "Ġfemin": 6626, "umber": 6627, "Ġupdated": 6628, "foot": 6629, "Ġcert": 6630, "ua": 6631, "Ġpregn": 6632, "ĠOld": 6633, "Ġschedule": 6634, "vin": 6635, "xy": 6636, "ĠPS": 6637, "amily": 6638, "adel": 6639, "Ġdedicated": 6640, "Ð½": 6641, "ĠAL": 6642, "Ġsentence": 6643, "Ġupcoming": 6644, "ĠRight": 6645, "ĠNY": 6646, "ĠDown": 6647, "ĠDi": 6648, "Ġcolumn": 6649, "hus": 6650, "Ġdepth": 6651, "Ġpled": 6652, "Ġvirtual": 6653, "uable": 6654, "Ġjourney": 6655, "Ġstruck": 6656, "ÑĢ": 6657, "Ġdesk": 6658, "Ġstudio": 6659, "Ġrealized": 6660, "ĠEnergy": 6661, "Despite": 6662, "ceived": 6663, "%)": 6664, "ographic": 6665, "ko": 6666, "ugh": 6667, "Ġmedic": 6668, "DS": 6669, "Ġserving": 6670, "iami": 6671, "Ġwalked": 6672, "rive": 6673, "iveness": 6674, "Ġking": 6675, "Ġring": 6676, "Ġreput": 6677, "you": 6678, "Ġurban": 6679, "phy": 6680, "07": 6681, "ĠCle": 6682, "ĠCharles": 6683, "ĠWild": 6684, "Ġtargeted": 6685, "Ġchannel": 6686, "Ġassets": 6687, "luding": 6688, "Ġtort": 6689, "Ġinspired": 6690, "Ġhotel": 6691, "ĠArizona": 6692, "Ġposts": 6693, "Ġnewslet": 6694, "Like": 6695, "Two": 6696, "ĠSupp": 6697, "Ġuniverse": 6698, "Ġagenda": 6699, "Ġcausing": 6700, "Ġwatched": 6701, "Ġsuicide": 6702, "Ġstream": 6703, "Ġoverwhel": 6704, "ĠPy": 6705, "Ġusual": 6706, "Ġsurveillance": 6707, "ĠMen": 6708, "Ġintent": 6709, "sole": 6710, "People": 6711, "Ġliqu": 6712, "Ġsister": 6713, "Ġopponents": 6714, "Ġchairman": 6715, "Ġdu": 6716, "ĠWars": 6717, "ĠCruz": 6718, "Ġmainstream": 6719, "gor": 6720, "bel": 6721, "Ġlatter": 6722, "Ġhall": 6723, "Ġsurrounding": 6724, "Ġfolks": 6725, "Ġknowing": 6726, "Ġorders": 6727, "ĠInf": 6728, "Ġremote": 6729, "Ġ75": 6730, "Ġsand": 6731, "Ġliterally": 6732, "ĠJava": 6733, "Ġobserved": 6734, "ĠAgain": 6735, "Ġsubsid": 6736, "Fr": 6737, "ĠDefense": 6738, "Ġinfl": 6739, "Ġapproval": 6740, "acc": 6741, "ĠVan": 6742, "iments": 6743, "Ġbasket": 6744, "rence": 6745, "burg": 6746, "Ġteachers": 6747, "azi": 6748, "avor": 6749, "izz": 6750, "Ġwinter": 6751, "iciency": 6752, "alle": 6753, "Ġexciting": 6754, "aze": 6755, "iro": 6756, "aylor": 6757, "ĠTal": 6758, "Ġformat": 6759, "boy": 6760, "Ġcongress": 6761, "Ġprotected": 6762, "ati": 6763, "Ġnoticed": 6764, "Ġsimpl": 6765, "Ġdealing": 6766, "ĠYoung": 6767, "rations": 6768, "ĠChild": 6769, "Ġprecise": 6770, "67": 6771, "xual": 6772, "Ġdeeply": 6773, "ipl": 6774, "Ġcommunication": 6775, "Ġgang": 6776, "Ġsending": 6777, "Ġforth": 6778, "ĠJr": 6779, "Ġfasc": 6780, "Ġbattery": 6781, "Ġwal": 6782, "mun": 6783, "Ġsky": 6784, "Ġnarr": 6785, "Ġfixed": 6786, "post": 6787, "abis": 6788, "Ġaside": 6789, "Ġrequirements": 6790, "Int": 6791, "Ġproperties": 6792, "rors": 6793, "Ġalive": 6794, "Ġnarrow": 6795, "Ġwake": 6796, "allas": 6797, "Ġpassion": 6798, "ĠArch": 6799, "onymous": 6800, "Ġeating": 6801, "Or": 6802, "ensity": 6803, "Ġmistake": 6804, "woman": 6805, "Ġexplore": 6806, "Ġcoffee": 6807, "ĠPan": 6808, "Ġ1970": 6809, "Ġrape": 6810, "Ġvolume": 6811, "Ġpromised": 6812, "Ġdiet": 6813, "acking": 6814, "Ġrisks": 6815, "Ġexhib": 6816, "ĠPolit": 6817, "ĠFort": 6818, "Ġsweet": 6819, "May": 6820, "âĢĻ.": 6821, "ĠEnter": 6822, "ĠWat": 6823, "Ġneut": 6824, "Ġinvolving": 6825, "Ġwage": 6826, "Ġselection": 6827, "ĠMax": 6828, "Ġtested": 6829, "ether": 6830, "Ġflu": 6831, "ulture": 6832, "Ġdefeat": 6833, "Ġnorthern": 6834, "Ġreward": 6835, "Ġwelcome": 6836, "ĠCast": 6837, "Ġextended": 6838, "Ġputs": 6839, "Ġterritory": 6840, "Ġphenomen": 6841, "Ġunemploy": 6842, "Ġrefugees": 6843, "Ġsample": 6844, "Ġheight": 6845, "Ġapproximately": 6846, "ĠKevin": 6847, "59": 6848, "Ġblame": 6849, "ĠBrad": 6850, "Ġanyway": 6851, "ums": 6852, "ĠDetroit": 6853, "Ġdestroyed": 6854, "obile": 6855, "ta": 6856, "Ġimpressive": 6857, "ĠStephen": 6858, "asks": 6859, "Ġgod": 6860, "Ġproof": 6861, "Ġgap": 6862, "Ġdry": 6863, "ï¿½": 6864, "Ġcrash": 6865, "Ġunknown": 6866, "Ġlocations": 6867, "04": 6868, "igg": 6869, "Ġselected": 6870, "apse": 6871, "Ġwest": 6872, "anges": 6873, "gery": 6874, "stone": 6875, "ĠFil": 6876, "Ġattacked": 6877, "Ġmaximum": 6878, "ĠMiller": 6879, "ĠWilson": 6880, "ĠTit": 6881, "Ġpromote": 6882, "Ġshel": 6883, "aser": 6884, "Ġmerely": 6885, "Ġfranchise": 6886, "arry": 6887, "lv": 6888, "Ġrequests": 6889, "Ġsho": 6890, "Ġretire": 6891, "Ġsuddenly": 6892, "Ġslowly": 6893, "Ġprotesters": 6894, "Ġdisag": 6895, "dro": 6896, "Ġteacher": 6897, "ixt": 6898, "Ġtypical": 6899, "ogan": 6900, "ĠWomen": 6901, "ĠIns": 6902, "ingu": 6903, "Ġconver": 6904, "list": 6905, "Ġchose": 6906, "ĠCamer": 6907, "ĠClass": 6908, "ĠLu": 6909, "Ġmatches": 6910, "Ġprote": 6911, "Ġlicense": 6912, "Ġproperly": 6913, "Ġassume": 6914, "oration": 6915, "Ġdiscover": 6916, "03": 6917, "Ġwid": 6918, "ĠPR": 6919, "ĠMic": 6920, "Rel": 6921, "Ġworried": 6922, "Ġmoder": 6923, "fire": 6924, "Ġabortion": 6925, "owered": 6926, "Ġallies": 6927, "ao": 6928, "Ġoblig": 6929, "Ġterrorism": 6930, "02": 6931, "Ġsupports": 6932, "ĠÎ": 6933, "uilding": 6934, "ÃĥÃĤ": 6935, "inson": 6936, "verty": 6937, "Ġarguments": 6938, "Ġadapt": 6939, "Ġtheme": 6940, "Ġconfront": 6941, "Ġfacilities": 6942, "Ġsustain": 6943, "gender": 6944, "Ġeast": 6945, "Ġpal": 6946, "Ġrecognize": 6947, "igure": 6948, "Ġfuck": 6949, "ÃĥÃĤÃĥÃĤ": 6950, "lies": 6951, "Ġequival": 6952, "mo": 6953, "Ġobtained": 6954, "Ġpoverty": 6955, "Ġrub": 6956, "ĠItaly": 6957, "Ġnomine": 6958, "Ġdeals": 6959, "Ġfees": 6960, "alo": 6961, "itarian": 6962, "osis": 6963, "ĠHollywood": 6964, "Ġunderstood": 6965, "Ġcontrolled": 6966, "VER": 6967, "ĠBest": 6968, "ĠDam": 6969, "Ġtopic": 6970, "Ġcritics": 6971, "ĠSociety": 6972, "ĠAgency": 6973, "axy": 6974, "ĠFord": 6975, "Ġsole": 6976, "ĠJersey": 6977, "arity": 6978, "Ġvillage": 6979, "Ġdiagn": 6980, "ĠAdminist": 6981, "raid": 6982, "68": 6983, "Ġlikes": 6984, "celer": 6985, "han": 6986, "sters": 6987, "ĠFour": 6988, "Ġevil": 6989, "Te": 6990, "Ġpunish": 6991, "Ġdress": 6992, "cript": 6993, "Ġped": 6994, "ĠGeorgia": 6995, "Ġbunch": 6996, "ĠCompany": 6997, "Ġjournalists": 6998, "John": 6999, "Ġexposed": 7000, "Ġregions": 7001, "redit": 7002, "ocation": 7003, "Ġscheme": 7004, "Ġcommunications": 7005, "Ġtransp": 7006, "Ġstim": 7007, "Ġlimits": 7008, "Ġsomehow": 7009, "Ġstrongly": 7010, "Ġhonor": 7011, "Ġdrag": 7012, "Ġresistance": 7013, "lls": 7014, "aire": 7015, "aug": 7016, "Ġchampion": 7017, "ĠLabor": 7018, "Ġconstant": 7019, "Ġphase": 7020, "ĠNASA": 7021, "asts": 7022, "ĠCarl": 7023, "pool": 7024, "Ġprofit": 7025, "Ġtruck": 7026, "Ġcondem": 7027, "Ġescape": 7028, "Ġpersonally": 7029, "ĠNight": 7030, "ĠDun": 7031, "rimination": 7032, "ĠLand": 7033, "Ġbid": 7034, "ĠNHL": 7035, "ĠStand": 7036, "Ġvacc": 7037, "Ġdeck": 7038, "CA": 7039, "nesota": 7040, "iform": 7041, "Ġfalling": 7042, "GBT": 7043, "ĠNetwork": 7044, "Ġsomewhere": 7045, "ems": 7046, "cers": 7047, "Ġemployee": 7048, "Ġharass": 7049, "ads": 7050, "Ġbear": 7051, "ĠCD": 7052, "iner": 7053, "Ġcomparison": 7054, "orted": 7055, "ciples": 7056, "Ġpolls": 7057, "owa": 7058, "Ġinqu": 7059, "ĠLove": 7060, "pected": 7061, "Ġsouthern": 7062, "oric": 7063, "Ġdecent": 7064, "cow": 7065, "ĠSpanish": 7066, "Ġencourage": 7067, "Ġemissions": 7068, "Ġ39": 7069, "ĠKn": 7070, "ĠView": 7071, "enders": 7072, "Ġempty": 7073, "ĠMiami": 7074, "Ġhits": 7075, "oster": 7076, "ĠCam": 7077, "Ġdefinition": 7078, "57": 7079, "Ġpic": 7080, "wan": 7081, "Ġdirected": 7082, "pes": 7083, "Ġflex": 7084, "zens": 7085, "ĠOk": 7086, "Ġmeetings": 7087, "ĠEnd": 7088, "ĠBell": 7089, "Ð¾Ð": 7090, "Ġcomprom": 7091, "Ġwinner": 7092, "intend": 7093, "icken": 7094, "Ġgotten": 7095, "ĠDaniel": 7096, "ĠTurk": 7097, "Ġelectricity": 7098, "aun": 7099, "Ġchosen": 7100, "Ġofficially": 7101, "Ġbench": 7102, "Ġstretch": 7103, "Ġdatabase": 7104, "Com": 7105, "ĠDespite": 7106, "Ġintellect": 7107, "Ġspin": 7108, "igation": 7109, "Ġstronger": 7110, "Ġdeleg": 7111, "Ġpurposes": 7112, "ĠDNA": 7113, "Ġcutting": 7114, "ĠTurn": 7115, "Ġfold": 7116, "rary": 7117, "Ġextensive": 7118, "Ġamounts": 7119, "Ġdesper": 7120, "Ġtrees": 7121, "Ġanx": 7122, "Ġideal": 7123, "ĠAsian": 7124, "Ġthread": 7125, "Ġfifth": 7126, "ĪĴ": 7127, "UR": 7128, "Ġgoods": 7129, "Ġcolon": 7130, "Ġdeveloper": 7131, "Ġclaiming": 7132, "unning": 7133, "Any": 7134, "Ġretain": 7135, "Ġsoul": 7136, "Ġcaptured": 7137, "ĠThough": 7138, "Ġfinds": 7139, "Ġdriven": 7140, "Ġpayments": 7141, "asters": 7142, "ĠJordan": 7143, "ras": 7144, "CS": 7145, "Ġties": 7146, "Ġreasonable": 7147, "Ġdogs": 7148, "âĸ": 7149, "Ġsomebody": 7150, "Ġending": 7151, "ĠNations": 7152, "Ġchoices": 7153, "Ġble": 7154, "Ġseats": 7155, "ĠServices": 7156, "ĠThank": 7157, "Ġpod": 7158, "Ġengage": 7159, "Ġdrawn": 7160, "Ġsight": 7161, "CE": 7162, "Ġparam": 7163, "ĠDar": 7164, "Ġthreatened": 7165, "Ġruled": 7166, "eping": 7167, "ĠAttorney": 7168, "ĠIrish": 7169, "ura": 7170, "ĠSea": 7171, "Ġtrading": 7172, "owed": 7173, "Ġprimarily": 7174, "Ġaspects": 7175, "Ġfighters": 7176, "ML": 7177, "Ġanswers": 7178, "Ġperfectly": 7179, "irms": 7180, "ĠAcadem": 7181, "Ġincl": 7182, "Ġrival": 7183, "Ġparking": 7184, "Ġrejected": 7185, "ĠGall": 7186, "Ġconstantly": 7187, "ĠHun": 7188, "fast": 7189, "Ġpayment": 7190, "ĠCat": 7191, "Ġdistinct": 7192, "Ġflying": 7193, "Ġrig": 7194, "Ġtechnologies": 7195, "ĠReal": 7196, "</": 7197, "Ġcomponents": 7198, "Police": 7199, "Ġadmit": 7200, "ĠScotland": 7201, "Ġelsewhere": 7202, "ĠDark": 7203, "Ġconstit": 7204, "Ġtur": 7205, "Ġanymore": 7206, "lder": 7207, "Ġicon": 7208, "Ġfields": 7209, "Ġestimates": 7210, "EW": 7211, "sea": 7212, "Ġsolutions": 7213, "Ġresulting": 7214, "78": 7215, "ĠBru": 7216, "Ġawesome": 7217, "Ġencoun": 7218, "Ġprovince": 7219, "mod": 7220, "Ġworldwide": 7221, "Ġactor": 7222, "Ġregularly": 7223, "ĠMoore": 7224, "Ġcourts": 7225, "Ġnarrative": 7226, "ĠUt": 7227, "Once": 7228, "Ġboot": 7229, "Ġenemies": 7230, "Ġmixed": 7231, "regon": 7232, "ĠOS": 7233, "ĠDisney": 7234, "sm": 7235, "icer": 7236, "Ġhouses": 7237, "Ġnobody": 7238, "ĠSk": 7239, "inations": 7240, "Ġcontrols": 7241, "ĠWater": 7242, "Ġletters": 7243, "ez": 7244, "apes": 7245, "agram": 7246, "iana": 7247, "imp": 7248, "Ġ42": 7249, "Ġmurd": 7250, "Ġmayor": 7251, "Ġloan": 7252, "Ġoutcome": 7253, "ĠMS": 7254, "Ġcontem": 7255, "sell": 7256, "Sec": 7257, "vy": 7258, "ship": 7259, "ĠLight": 7260, "onic": 7261, "isan": 7262, "Ġapartment": 7263, "ĠSteven": 7264, "Ġcoalition": 7265, "Ġcontributed": 7266, "ĠBas": 7267, "Ġtank": 7268, "Ġconcluded": 7269, "ĠAdam": 7270, "Ġexists": 7271, "ĠTw": 7272, "Ġfounder": 7273, "ĠBrian": 7274, "earing": 7275, "ĠLew": 7276, "Ġatmosphere": 7277, "Ġprofile": 7278, "Ġbrew": 7279, "ĠId": 7280, "Ġsituations": 7281, "ĠChampionship": 7282, "ĠAuthor": 7283, "rates": 7284, "Ġincredible": 7285, "ĠConstitution": 7286, "Ġsignal": 7287, "otes": 7288, "ĠRog": 7289, "Ġaccurate": 7290, "300": 7291, "ĠVictor": 7292, "otten": 7293, "Ġunp": 7294, "ĠWhere": 7295, "ker": 7296, "ĠSouthern": 7297, ".\"[": 7298, "Ġemployment": 7299, "Ġclients": 7300, "Dr": 7301, "Ġkeeps": 7302, "Ġinformed": 7303, "Ġcontinuing": 7304, "inity": 7305, "Ġbaseball": 7306, "Ġgenerate": 7307, "Ġticket": 7308, "Ġconven": 7309, "Also": 7310, "ĠConf": 7311, "Ġweird": 7312, "Ġtied": 7313, "lock": 7314, "adelph": 7315, "Ġcategory": 7316, "Ġinfect": 7317, "ilarly": 7318, "acked": 7319, "Ġangry": 7320, "ĠOrgan": 7321, "Ġroutine": 7322, "aron": 7323, "Ġkil": 7324, "Ġraising": 7325, "ifer": 7326, "Ġmachines": 7327, "Ġregistered": 7328, "Ġproved": 7329, "there": 7330, "Ġdemands": 7331, "Ġgaming": 7332, "ĠItalian": 7333, "Ġincredibly": 7334, "Ġcrucial": 7335, "Ġstuck": 7336, "ĠCivil": 7337, "ĠDallas": 7338, "cr": 7339, "Ġterrible": 7340, "56": 7341, "MP": 7342, "Ġfeedback": 7343, "Ġupper": 7344, "Ġplastic": 7345, "Ġimper": 7346, "Ġnewly": 7347, "ĠJoseph": 7348, "Ġconsumption": 7349, "Ġdozen": 7350, "Ġenthus": 7351, "Ġestate": 7352, "ali": 7353, "rage": 7354, "Ġinnoc": 7355, "Ġmanip": 7356, "ĠTem": 7357, "Ġconscious": 7358, "Ġbills": 7359, "ĠCross": 7360, "ĠSpain": 7361, "ifications": 7362, "Today": 7363, "Ġwriters": 7364, "Ġexcess": 7365, "inding": 7366, "Ġaggressive": 7367, "Ġreporter": 7368, "Ġcompens": 7369, "Ġreturning": 7370, "Ġstead": 7371, "Ġprogramming": 7372, "ĠThanks": 7373, "Ġrepresented": 7374, "Ġconclusion": 7375, "98": 7376, "Ġrus": 7377, "ĠBowl": 7378, "ĠAR": 7379, "MS": 7380, "Ġorigin": 7381, "Ġassistant": 7382, "adelphia": 7383, "Ġroster": 7384, "ĠMinnesota": 7385, "Ġorganized": 7386, "ria": 7387, "Ġpenalty": 7388, "lers": 7389, "Ġdrinking": 7390, "Ġpaint": 7391, "Ġsatell": 7392, "Ġgro": 7393, "ĠProgram": 7394, "Ġcapture": 7395, "ni": 7396, "Ġconspir": 7397, "Ġinterpret": 7398, "Ġexplanation": 7399, "iscal": 7400, "58": 7401, "Ġcounty": 7402, "iscons": 7403, "essed": 7404, "mont": 7405, "ima": 7406, "Ġ%": 7407, "anny": 7408, "gorith": 7409, "emen": 7410, "isconsin": 7411, "Ġassistance": 7412, "ĠRoman": 7413, "Ġcomplaint": 7414, "Ġru": 7415, "Ġnut": 7416, "LA": 7417, "Ġmagic": 7418, "Ġtall": 7419, "ĠOper": 7420, "Ġgranted": 7421, "Ed": 7422, "Because": 7423, "ĠContin": 7424, "star": 7425, "Off": 7426, "ĠParliament": 7427, "Ġcomplicated": 7428, "Ġaudio": 7429, "Ġchances": 7430, "Ġextract": 7431, "rypt": 7432, "ĠGi": 7433, "Ġ1999": 7434, "Ġhel": 7435, "ĠEduc": 7436, "era": 7437, "Ġshares": 7438, "Ġsuccessfully": 7439, "esy": 7440, "........": 7441, "ĠIT": 7442, "zy": 7443, "Ġpilot": 7444, "ĠEp": 7445, "ĠHot": 7446, "Ġmyth": 7447, "Ġrecovery": 7448, "ĠTest": 7449, "Ġtechniques": 7450, "Ġiron": 7451, "ĠCare": 7452, "ĠZeal": 7453, "ĠSC": 7454, "Ġscenes": 7455, "ĠFre": 7456, "Ġveteran": 7457, "ĠWin": 7458, "Ġ($": 7459, "Ġdegrees": 7460, "actions": 7461, "ked": 7462, "Ġsympt": 7463, "thew": 7464, "Ġlawmakers": 7465, "Ġwestern": 7466, "Ġoperate": 7467, "Ġads": 7468, "rating": 7469, "Ġhabit": 7470, "Ġaimed": 7471, "Inst": 7472, "anchester": 7473, "Ġphr": 7474, "rep": 7475, "rete": 7476, "Ġtaste": 7477, "idency": 7478, "Ġengaged": 7479, "Ġprivile": 7480, "Ġ55": 7481, "========": 7482, "Ġrating": 7483, "Ġteaching": 7484, "ĠOs": 7485, "Ġacademic": 7486, "itar": 7487, "Ġtherap": 7488, "Ġpasses": 7489, "Ġdollar": 7490, "hent": 7491, "Ġautomatically": 7492, "ĠPacific": 7493, "Ġmonit": 7494, "Ġblocks": 7495, "abama": 7496, "Ġattended": 7497, "Ġpermanent": 7498, "Ġsurvive": 7499, "uan": 7500, "Ġanticip": 7501, "Ġenable": 7502, "ĠLook": 7503, "Ġextrem": 7504, "ĠForeign": 7505, "chain": 7506, "%.": 7507, "Ġmarked": 7508, "itals": 7509, "Ġhidden": 7510, "Ġaccomp": 7511, "Ġtitles": 7512, "ĠSenator": 7513, "ĠNBC": 7514, "Ġtaught": 7515, "aed": 7516, "ĠLinux": 7517, "Ġbom": 7518, "Ġindex": 7519, "everal": 7520, "Ġelite": 7521, "ibilities": 7522, "Ġlawyers": 7523, "from": 7524, "Ġdepending": 7525, "Ġvaluable": 7526, "Ġinstalled": 7527, "Ġchampionship": 7528, "Ġroot": 7529, "Ġcompre": 7530, "mal": 7531, "ĠBull": 7532, "Ġdowntown": 7533, "Ġequivalent": 7534, "Ġsolve": 7535, "rific": 7536, "Ġduty": 7537, "ĠSpecial": 7538, "ĠBusiness": 7539, "Ġ64": 7540, "Ġpace": 7541, "HS": 7542, "Ġreputation": 7543, "Ġuncertain": 7544, "Ġphones": 7545, "uine": 7546, "Ġoverse": 7547, "bal": 7548, "ĠTaylor": 7549, "Ġpersonnel": 7550, "Ġpin": 7551, "reams": 7552, "aturally": 7553, "Ġsufficient": 7554, "Ġvisited": 7555, "Ġwarming": 7556, "Ġprinciples": 7557, "Ġvulnerable": 7558, "Ġenjoyed": 7559, "Ġfake": 7560, "ĠNick": 7561, "Ġadvis": 7562, "Ġnegotiations": 7563, "inder": 7564, "Ġgenerated": 7565, "Ġexposure": 7566, "Ġrecording": 7567, "Ġcollected": 7568, "Ġregardless": 7569, "Ġdict": 7570, "EA": 7571, "Ġbitcoin": 7572, "Ġelev": 7573, "ãĢ": 7574, "active": 7575, "ĠKelly": 7576, "ĠAnth": 7577, "Ġcup": 7578, "Ġpatterns": 7579, "Getty": 7580, "ĠTake": 7581, "))": 7582, "ĠAvenue": 7583, "ĠJosh": 7584, "bro": 7585, "Ġdisaster": 7586, "Ġcable": 7587, "Ġ65": 7588, "Ġchat": 7589, "Ġworker": 7590, "Ġmainly": 7591, "Ġracial": 7592, "quarters": 7593, "ĠCoast": 7594, "ĠViet": 7595, "month": 7596, "Ġpounds": 7597, "Ġ150": 7598, "ĠCall": 7599, "Ġportion": 7600, "Ġafraid": 7601, "Ġinspir": 7602, "ĠAh": 7603, "Ġdefence": 7604, "Ġbes": 7605, "ĠEastern": 7606, "da": 7607, "ĠTony": 7608, "Ġtracks": 7609, "Ġbusy": 7610, "Ġgrant": 7611, "Ġshit": 7612, "Ġintense": 7613, "ĠSeries": 7614, "ĠLGBT": 7615, "orne": 7616, "ĠStill": 7617, "athy": 7618, "Ġfunny": 7619, "Ġapolog": 7620, "Ġsurgery": 7621, "ĠMoscow": 7622, "mann": 7623, "ĠColl": 7624, "Ġpossession": 7625, "Ġprominent": 7626, "ĠMars": 7627, "Ġcomic": 7628, "ĠGer": 7629, "ashes": 7630, "97": 7631, "ules": 7632, "ĠRay": 7633, "Ġthin": 7634, "Ġengineering": 7635, "Ġtroub": 7636, "ĠKurd": 7637, "this": 7638, "Ġprocesses": 7639, "ĠNation": 7640, "fall": 7641, "ĠKent": 7642, "ĠCome": 7643, "Ġentit": 7644, "ĠâĢĻ": 7645, "Ġunusual": 7646, "raph": 7647, "etary": 7648, "Ġdescribes": 7649, "Col": 7650, "world": 7651, "96": 7652, "Ġresulted": 7653, "Ġemerged": 7654, "Ġtaxp": 7655, "Ġgall": 7656, "iler": 7657, "Ġdim": 7658, "Ġpropag": 7659, "ĠIowa": 7660, "ĠOregon": 7661, "Ġcoordin": 7662, "Ġcorruption": 7663, "Ġstations": 7664, "ĠInvest": 7665, "Ġfought": 7666, "ĠAD": 7667, "Ġbrut": 7668, "Ġextension": 7669, "ref": 7670, "Ġblind": 7671, "Ġadopted": 7672, "prise": 7673, "ye": 7674, "Ġcompete": 7675, "Ġrecru": 7676, "ĠZealand": 7677, "Ġhadn": 7678, "Pr": 7679, "Ġ400": 7680, "Ġmail": 7681, "Ġeverywhere": 7682, "ĠBalt": 7683, "Ġcrypt": 7684, "ĠHom": 7685, "ba": 7686, "Rec": 7687, "Mean": 7688, "herent": 7689, "icate": 7690, "ĠAli": 7691, "Ġcontracts": 7692, "front": 7693, "Ġneuro": 7694, "ĠLo": 7695, "ĠDead": 7696, "ĠRick": 7697, "Ġfeelings": 7698, "Ġfirms": 7699, "idelines": 7700, "âĢĻ,": 7701, "Ġminority": 7702, "Ġspr": 7703, "cles": 7704, "HA": 7705, "Ġadvertising": 7706, "tes": 7707, "Ġrarely": 7708, "Ġdiscipl": 7709, "making": 7710, "ĠNorthern": 7711, "Ġsanctions": 7712, "gun": 7713, "ĠVeg": 7714, "scape": 7715, "ĠPhiladelphia": 7716, "upid": 7717, "Ġcameras": 7718, "Ġexplicit": 7719, "Ġstrict": 7720, "viously": 7721, "log": 7722, "Ġenorm": 7723, "Ġfinance": 7724, "Ġcited": 7725, "ifies": 7726, "ĠBefore": 7727, "Ġshortly": 7728, "UL": 7729, "ĠPolicy": 7730, "olt": 7731, "Ġexpectations": 7732, "Ġimplementation": 7733, "ogen": 7734, "Ġrecip": 7735, "cling": 7736, "ĠGreek": 7737, "Ġthick": 7738, "Ġthousand": 7739, "antic": 7740, "ĠMu": 7741, "Ġloud": 7742, "istent": 7743, "Ġaffili": 7744, "urrent": 7745, "orough": 7746, "ĠNavy": 7747, "Ġinev": 7748, "rell": 7749, "cus": 7750, "Ġphotograph": 7751, "Ġmedium": 7752, "azz": 7753, "ĠWisconsin": 7754, "Ġscenario": 7755, "ĠFood": 7756, "ĠLive": 7757, "Ġsup": 7758, "ilton": 7759, "Ġplug": 7760, "Ġveget": 7761, "Ġho": 7762, "Ġvisible": 7763, "LC": 7764, "Ġlights": 7765, "Ġcreates": 7766, "Ġpriority": 7767, "Ġven": 7768, "Ġbridge": 7769, "eland": 7770, "inking": 7771, "Ġobst": 7772, "Ġagric": 7773, "ATE": 7774, "Ġpermission": 7775, "ĠFoot": 7776, "Ġalgorith": 7777, "izon": 7778, "Co": 7779, "elect": 7780, "Ġparticipate": 7781, "aska": 7782, "Ġwing": 7783, "who": 7784, "asion": 7785, "Ġbrowser": 7786, "ĠGlobal": 7787, "Ġtag": 7788, "ĠOl": 7789, "ĠHas": 7790, "Ġmel": 7791, "Ġacceler": 7792, "Ġdozens": 7793, "ĠKingdom": 7794, "Ġhistoric": 7795, "Ġcomputers": 7796, "Ġlaid": 7797, "Ġbasketball": 7798, "Ġlosses": 7799, "text": 7800, "ĠSaf": 7801, "ĠAsh": 7802, "76": 7803, "ogether": 7804, "Ġunw": 7805, "::": 7806, "Ġtor": 7807, "ĠAmendment": 7808, "Mar": 7809, "Ġstrikes": 7810, "Ġprinciple": 7811, "ĠDevelopment": 7812, "Ġformal": 7813, "EP": 7814, "igen": 7815, "54": 7816, "Ġscoring": 7817, "obs": 7818, "athered": 7819, "Ġ44": 7820, "Ġcounsel": 7821, "found": 7822, "++": 7823, "Ġshock": 7824, "Ġwonderful": 7825, "ĠSP": 7826, "Ġbehalf": 7827, "abs": 7828, "Ġuncom": 7829, "profit": 7830, "52": 7831, "enth": 7832, "Ġinterface": 7833, "Ġestablishment": 7834, "Ġtoler": 7835, "ĠHenry": 7836, "ĠGreg": 7837, "amber": 7838, "car": 7839, "ĠMajor": 7840, "ĠThus": 7841, "Us": 7842, "Ġgained": 7843, "Ġfee": 7844, "lete": 7845, "she": 7846, "Ġfounded": 7847, "etime": 7848, "Ġfoundation": 7849, "jo": 7850, "51": 7851, "ĠESP": 7852, "ilipp": 7853, "Ġclubs": 7854, "Ġcannabis": 7855, "Ġju": 7856, "Ġairport": 7857, "ĠKey": 7858, "ystem": 7859, "Ġborrow": 7860, "olis": 7861, "weet": 7862, "BO": 7863, "Ġmanufacturing": 7864, "Ġrely": 7865, "ĠHit": 7866, "aus": 7867, "ĠPay": 7868, "ĠAlabama": 7869, "Ġgenuine": 7870, "ĠRoyal": 7871, "rators": 7872, "Before": 7873, "uer": 7874, "Ġcomponent": 7875, "Ġridic": 7876, "osexual": 7877, "Ġwheel": 7878, "rative": 7879, "ĠOak": 7880, "Ġjournalist": 7881, "Ġrelief": 7882, "ĠSn": 7883, "Ġsaved": 7884, "Ġhole": 7885, "Ġyield": 7886, "Ġheaded": 7887, "Ġcyber": 7888, "Ne": 7889, "ĠMoh": 7890, "ependent": 7891, "Ġgift": 7892, "bell": 7893, "Ġfault": 7894, "Ġwithdraw": 7895, "Ġindicate": 7896, "Ġdrawing": 7897, "Ġuniform": 7898, "umer": 7899, "ĠRand": 7900, "ĠVis": 7901, "arlier": 7902, "Ġstable": 7903, "Ġships": 7904, "Ġ->": 7905, "Ġbanned": 7906, "Ġmagn": 7907, "ĠMid": 7908, "Ġfootage": 7909, "Meanwhile": 7910, "rous": 7911, "Ġdoors": 7912, "lan": 7913, "Ġrecognized": 7914, "Ġ1960": 7915, "Ġcontaining": 7916, "pread": 7917, "ĠFC": 7918, "Ġriver": 7919, "ami": 7920, "Ġstruggling": 7921, "Sub": 7922, "Ġspark": 7923, "ĠAcademy": 7924, "Ġwalls": 7925, "Ġachieved": 7926, "opher": 7927, "ounced": 7928, "Ġneighb": 7929, "aning": 7930, "Ġplate": 7931, "Ġedition": 7932, "ĠHT": 7933, "portion": 7934, "mate": 7935, "Ġmovements": 7936, "Ġdeliber": 7937, "uce": 7938, "teen": 7939, "Post": 7940, "Ġsharp": 7941, "ĠAS": 7942, "ĠSnow": 7943, "ulating": 7944, "ĠThree": 7945, "Ġepisodes": 7946, "Ġneutral": 7947, "ĠPremier": 7948, "ĠRet": 7949, "ĠFund": 7950, "Ġexception": 7951, "etts": 7952, "Ġproducer": 7953, "________________": 7954, "ĠFred": 7955, "Ġdestruction": 7956, "Ġ1998": 7957, "oured": 7958, "Ġbeliefs": 7959, "Ġ47": 7960, "ĠReview": 7961, "Ġlegend": 7962, "Ġpump": 7963, "ĠMcG": 7964, "Ġbacked": 7965, "umin": 7966, "Ġliked": 7967, "Ġhired": 7968, "idespread": 7969, "cription": 7970, "Ġroles": 7971, "Ġlanguages": 7972, "Ġprofession": 7973, "Ġentering": 7974, "osa": 7975, "ĠVR": 7976, "Ġinterviews": 7977, "Ġhang": 7978, "isp": 7979, "ĠKir": 7980, "eman": 7981, "Ġtox": 7982, "Ġphilosophy": 7983, "ĠAdministration": 7984, "Ġarrange": 7985, "oen": 7986, "interest": 7987, "Ġflaw": 7988, "Those": 7989, "ĠNob": 7990, "sylv": 7991, "imore": 7992, "Ġstadium": 7993, "ĠAtlanta": 7994, "ĠJac": 7995, "Ġreduction": 7996, "Ġdinner": 7997, "ca": 7998, "ja": 7999, "Ġbath": 8000, "ĠReport": 8001, "iel": 8002, "uper": 8003, "ĠTurkish": 8004, "400": 8005, "Ġaver": 8006, "Ġfinger": 8007, "ĠNote": 8008, "ĠConference": 8009, "Ġtackle": 8010, "Ġcha": 8011, "burgh": 8012, "Ġgonna": 8013, "ĠDiego": 8014, "ĠPoint": 8015, "Ġcrop": 8016, "ĠCentre": 8017, "Ġfarmers": 8018, "ĠManchester": 8019, "Ġnominee": 8020, "Ġ41": 8021, "53": 8022, "aching": 8023, "ĠJason": 8024, "Ġbarely": 8025, "ATO": 8026, "Ġstructures": 8027, "Ġcontained": 8028, "Ġsynt": 8029, "ĠOtt": 8030, "Ġdelivery": 8031, "Ġconvin": 8032, "%,": 8033, "Ġprocessing": 8034, "Ġdiscrimination": 8035, "Ġincent": 8036, "riers": 8037, "ĠFair": 8038, "erved": 8039, "RS": 8040, "ĠData": 8041, "then": 8042, "ĠArm": 8043, "abinet": 8044, "Ġintellectual": 8045, "ĠRadio": 8046, "amsung": 8047, "Ġ46": 8048, "ĠBry": 8049, "ĠOK": 8050, "ĠField": 8051, "Me": 8052, "ĠDid": 8053, "Ġupset": 8054, "ĠPerhaps": 8055, "ĠMir": 8056, "ĠEducation": 8057, "sylvania": 8058, "away": 8059, "President": 8060, "Ġchallenging": 8061, "Ġproven": 8062, "Ġrestrictions": 8063, "rik": 8064, "Ġforever": 8065, "ho": 8066, "https": 8067, "olen": 8068, "Ġelectronic": 8069, "Ġhitting": 8070, "ĠHay": 8071, "Ġeuro": 8072, "Ġunex": 8073, "Ġreviews": 8074, "ĠFed": 8075, "ĠChristians": 8076, "Ġ43": 8077, "ĠNC": 8078, "Ġconvicted": 8079, "Star": 8080, "Ġillness": 8081, "Ġsmooth": 8082, "page": 8083, "Dav": 8084, "ĠHor": 8085, "Ġretired": 8086, "Ġindicated": 8087, "usive": 8088, "Ġproducing": 8089, "ĠAbout": 8090, "ĠHarry": 8091, "Ġrapidly": 8092, "Ġrose": 8093, "Ġhide": 8094, "fr": 8095, "Ġcorporations": 8096, "Ġocean": 8097, "iy": 8098, "ĠRus": 8099, "aying": 8100, "owing": 8101, "Ġlistening": 8102, "ĠReuters": 8103, "ĠUFC": 8104, "ĠSat": 8105, "Ġtechnique": 8106, "Ġmo": 8107, "yard": 8108, "sels": 8109, "Ġloyal": 8110, "ĠNic": 8111, "lessly": 8112, "Ġrobot": 8113, "Ġclimb": 8114, "Ġnotion": 8115, "Ġbegun": 8116, "87": 8117, "Ġutil": 8118, "Ġrecognition": 8119, "Ġren": 8120, "ouver": 8121, "engers": 8122, "Ġperpet": 8123, "Ġassociation": 8124, "Ġmilk": 8125, "inf": 8126, "Ġasks": 8127, "Ġwebsites": 8128, "Ġdescription": 8129, "ĠPack": 8130, "Ġtickets": 8131, "ĠPen": 8132, "achus": 8133, "Ġflash": 8134, "Ġbra": 8135, "Ġsuggesting": 8136, "enny": 8137, "ĠJudge": 8138, "Ġexclusive": 8139, "Ġreaching": 8140, "Ġprepare": 8141, "iti": 8142, "ĠKansas": 8143, "Who": 8144, "ione": 8145, "Ġbail": 8146, "Ġfrag": 8147, "Ġprogressive": 8148, "Ġburd": 8149, "Ġexceed": 8150, "Ġequally": 8151, "ĠHard": 8152, "Ġhardly": 8153, "Ġwidespread": 8154, "ĠABC": 8155, "Ġcampaigns": 8156, "ĠMayor": 8157, "Ġcontribute": 8158, "udes": 8159, "ologists": 8160, "Ġbranch": 8161, "Look": 8162, "ĠRose": 8163, "Ġgrass": 8164, "Ġinitiative": 8165, "ĠMarket": 8166, "Ġethnic": 8167, "Ġexternal": 8168, "ikes": 8169, "ĠCirc": 8170, "uma": 8171, "rient": 8172, "Ġsensitive": 8173, "Ġpractical": 8174, "usted": 8175, "elf": 8176, "Ġunclear": 8177, "Ġnormally": 8178, "Ref": 8179, "Ġrepresentative": 8180, "pat": 8181, "ls": 8182, "89": 8183, "thon": 8184, "Ġwelf": 8185, "ĠFull": 8186, "Ġreducing": 8187, "appy": 8188, "Ġfriendly": 8189, "bec": 8190, "Ġcarefully": 8191, "ĠArabia": 8192, "ĠRef": 8193, "lad": 8194, "ester": 8195, "ĠLy": 8196, "PM": 8197, "ĠLuc": 8198, "Ġracist": 8199, "Ġinvent": 8200, "rical": 8201, "ouch": 8202, "PG": 8203, "ĠCO": 8204, "ĠNext": 8205, "Ġrespectively": 8206, "senal": 8207, "rator": 8208, "Ġtail": 8209, "imm": 8210, "ĠMcCain": 8211, "ĠBernie": 8212, "ancouver": 8213, "Ġoverwhelming": 8214, "Ġviewers": 8215, "ĠBeach": 8216, "stract": 8217, "Ġwelfare": 8218, "arrass": 8219, "ĠFurther": 8220, "Ġconvinced": 8221, "UN": 8222, "Ġsmoke": 8223, "umes": 8224, "Ġcollapse": 8225, "Ġinvolvement": 8226, "ĠLind": 8227, "Ġthrown": 8228, "pload": 8229, "Ġconnections": 8230, "heast": 8231, "Ġterrorists": 8232, "ĠBattle": 8233, "Ġstrategic": 8234, "Ġhook": 8235, "Ġ00": 8236, "ĠLatin": 8237, "Ġrecover": 8238, "omething": 8239, "igrant": 8240, "ĠOnt": 8241, "Ġwine": 8242, "Mc": 8243, "inois": 8244, "ĠMusic": 8245, "rolled": 8246, "Ġminds": 8247, "Ġvital": 8248, "Ġsettlement": 8249, "Ġstatistics": 8250, "Ġlists": 8251, "Ġvary": 8252, "ĠSir": 8253, "Ġfeaturing": 8254, "ĠESPN": 8255, "ecut": 8256, "ĠDig": 8257, "achusetts": 8258, "Ġbehaviour": 8259, "Ġindependence": 8260, "worth": 8261, "Ġfantasy": 8262, "Ġdevast": 8263, "nedy": 8264, "core": 8265, "uties": 8266, "Ġinvited": 8267, "Ġcomplaints": 8268, "Ġjoining": 8269, "Ġscores": 8270, "dem": 8271, "Ġfiscal": 8272, "Ġdeeper": 8273, "abil": 8274, "ĠPennsylvania": 8275, "ifest": 8276, "Ġsteal": 8277, "Ġanger": 8278, "Ġdeputy": 8279, "Ġelig": 8280, "Ġwars": 8281, "ĠSquare": 8282, "ĠTenn": 8283, "Ġinvestigate": 8284, "ĠTown": 8285, "Ġsugar": 8286, "Ġconstitutional": 8287, "ĠIII": 8288, "Ġscholars": 8289, "ĠPit": 8290, "ĠiOS": 8291, "Ġanybody": 8292, "Ġsubjects": 8293, "ĠAND": 8294, "Ġarray": 8295, "Ġalien": 8296, "FA": 8297, "ĠUlt": 8298, "ĠGov": 8299, "Ġlobby": 8300, "Ġownership": 8301, "Ġframework": 8302, "Ġunemployment": 8303, "ĠDivision": 8304, "Ġtransgender": 8305, "bn": 8306, "Ġimprovements": 8307, "ĠSS": 8308, "Ġmenu": 8309, "Ġpeak": 8310, "Back": 8311, "Ġscreens": 8312, "ihad": 8313, "Ġinject": 8314, "Ġluck": 8315, "iversary": 8316, "Ġdefine": 8317, "Ġtasks": 8318, "ĠXbox": 8319, "Ġdemocratic": 8320, "Ġscandal": 8321, "icking": 8322, "Ġjury": 8323, "acon": 8324, "ĠAnton": 8325, "Che": 8326, "ĠMinistry": 8327, "Ġcos": 8328, "ĠEs": 8329, "Ġcomprehens": 8330, "osit": 8331, "ĠKat": 8332, "Ġremem": 8333, "Ġdiscovery": 8334, "unior": 8335, "Ġregister": 8336, "Ġcasual": 8337, "Ġcitizen": 8338, "RI": 8339, "Ġfab": 8340, "Under": 8341, "een": 8342, "Ġroads": 8343, "Ġdisagree": 8344, "Ġfailing": 8345, "ĠNever": 8346, "ĠLittle": 8347, "ĠJay": 8348, "Ġdynamic": 8349, "Ġserves": 8350, "ĠCameron": 8351, "ĠBrother": 8352, "ĠMah": 8353, "Ġtestim": 8354, "Ġgathered": 8355, "ĠStone": 8356, "ĠInformation": 8357, "Sm": 8358, "Ġsoph": 8359, "oding": 8360, "Ġimplemented": 8361, "Ġcontroversy": 8362, "Ġcollective": 8363, "Ġtrained": 8364, "anna": 8365, "ĠNSA": 8366, "Ġneighbour": 8367, "Ġfears": 8368, "leveland": 8369, "Ġsamples": 8370, "Ġfiction": 8371, "Ġprosec": 8372, "agg": 8373, "Ġestimate": 8374, "ĠCommunity": 8375, "69": 8376, "ĠIce": 8377, "ĠMedical": 8378, "Ġ1997": 8379, "ĠPhilipp": 8380, "Ġreferring": 8381, "Ġtip": 8382, "Ġcaptain": 8383, "Will": 8384, "Ġ1996": 8385, "Ġspaces": 8386, "cific": 8387, "ĠWalker": 8388, "Ġversus": 8389, "Ġlegs": 8390, "ĠSanta": 8391, "'.": 8392, "Ġtemporary": 8393, "PC": 8394, "Ġnoise": 8395, "ĠHD": 8396, "Ġovert": 8397, "Ġincorpor": 8398, "Ġtone": 8399, "Ġvisitors": 8400, "Ġreven": 8401, "Ġcivilians": 8402, "Ġwages": 8403, "Ġhypot": 8404, "Ġsin": 8405, "Ġremarks": 8406, "Ġawareness": 8407, "ĠON": 8408, "ĠSpring": 8409, "Ġrecommended": 8410, "Ġstupid": 8411, "ĠAllen": 8412, "Ġheading": 8413, "Ġhandful": 8414, "Ġregulation": 8415, "icket": 8416, "ĠAction": 8417, "ĠCore": 8418, "Ġplatforms": 8419, "Ġaccus": 8420, "ĠAnthony": 8421, "Ġaffairs": 8422, "Ġtouchdown": 8423, "Ġrural": 8424, "Ġattacking": 8425, "gener": 8426, "Ġextend": 8427, "Ġultimate": 8428, "Ġattached": 8429, "ĠVegas": 8430, "Ġdiscussions": 8431, "ĠRen": 8432, "Ġhorse": 8433, "ĠBrew": 8434, "mad": 8435, "Ġreprodu": 8436, "Ġgenetic": 8437, "Ġexpanded": 8438, "Ġattempting": 8439, "phones": 8440, "ĠMatthew": 8441, "Ġraces": 8442, "including": 8443, "iry": 8444, "ĠQueen": 8445, "Ġraw": 8446, "Ġignore": 8447, "ĠColumbia": 8448, "serv": 8449, "ĠPent": 8450, "ĠGuardian": 8451, "hour": 8452, "ĠCook": 8453, "ĠiP": 8454, "itionally": 8455, "Ġgear": 8456, "Ġsymptoms": 8457, "ĠPatrick": 8458, "Ġsuffer": 8459, "Ġsettings": 8460, "ĠMake": 8461, "âĢĶâĢĶâĢĶâĢĶ": 8462, "alling": 8463, "Ġsalary": 8464, "case": 8465, "Ġlicens": 8466, "mary": 8467, "GO": 8468, "Ġtweeted": 8469, "angel": 8470, "Ġpublication": 8471, "Ġbrill": 8472, "Ġfactory": 8473, "Ġsuspected": 8474, "Ġpurchased": 8475, "aret": 8476, "Ġintervention": 8477, "Ġeastern": 8478, "Ġholiday": 8479, "type": 8480, "2014": 8481, "Ġtheat": 8482, "esh": 8483, "About": 8484, "Ġdispl": 8485, "Ġranked": 8486, "ĠBudd": 8487, "Ġneck": 8488, "ĠAustin": 8489, "ĠConservative": 8490, "ĠMuseum": 8491, "ective": 8492, "ĠRoy": 8493, "\")": 8494, "Ġcro": 8495, "Ġenormous": 8496, "Sen": 8497, "####": 8498, "intendo": 8499, "Ġcogn": 8500, "Ġlogic": 8501, "ultural": 8502, "ictions": 8503, "Ġimprovement": 8504, "ĠAPI": 8505, "Ġviewed": 8506, "Ġingred": 8507, "Ġentertainment": 8508, "Ass": 8509, "Ġlegitimate": 8510, "ĠProfessor": 8511, "ommod": 8512, "Ġpresum": 8513, "ĠAlbert": 8514, "ĠMassachusetts": 8515, "ĠBall": 8516, "Ġ2019": 8517, "Ġwww": 8518, "News": 8519, "Ġactors": 8520, "Ġsubstantial": 8521, "Ġhumanity": 8522, "Ġinvolves": 8523, "Ġresource": 8524, "arms": 8525, "Ġbrothers": 8526, "Ġliquid": 8527, "Ġrational": 8528, "Ġseemingly": 8529, "Ġsorry": 8530, "Ġlayer": 8531, "Ġloans": 8532, "Ġrook": 8533, "Ġinvestigating": 8534, "Ġabsence": 8535, "Ġproviders": 8536, "Ġtomorrow": 8537, "Ġfallen": 8538, "Ġbureau": 8539, "Ġgrounds": 8540, "Ġcoaches": 8541, "Ġstake": 8542, "Ġresign": 8543, "Ġouts": 8544, "rec": 8545, "Ġadvocates": 8546, "ĠâĤ¬": 8547, "RC": 8548, "Ġinvestigators": 8549, "Ġconspiracy": 8550, "Where": 8551, "Ġmedicine": 8552, "Ġdramatic": 8553, "Ġfulf": 8554, "Ġmonitor": 8555, "ĠChair": 8556, "EST": 8557, "repre": 8558, "Ġovers": 8559, "Ġchapter": 8560, "ĠSeason": 8561, "Ġcoc": 8562, "oval": 8563, "GE": 8564, "lah": 8565, "ĠHo": 8566, ".-": 8567, "Ġactivist": 8568, "plete": 8569, "ped": 8570, "Ġboat": 8571, "ĠCheck": 8572, "aka": 8573, "ĠControl": 8574, "Ġjur": 8575, "Ġsuspended": 8576, "Ġpapers": 8577, "Script": 8578, "ĠGreece": 8579, "Ġopinions": 8580, "ĠSuch": 8581, "ĠRoss": 8582, "Ġmissile": 8583, "ĠGolden": 8584, "Ġceleb": 8585, "ĠRevolution": 8586, "2016": 8587, "Ġstayed": 8588, "Ġcovers": 8589, "ĠRa": 8590, "ĠHead": 8591, "iverpool": 8592, "Ġdiversity": 8593, "otype": 8594, "Ġbars": 8595, "Part": 8596, "Ġgam": 8597, "Russ": 8598, "Ġembarrass": 8599, "xit": 8600, "Ġoffices": 8601, "ĠAcc": 8602, "rets": 8603, "ourse": 8604, "claim": 8605, "ĠPot": 8606, "hot": 8607, "ĠIranian": 8608, "ammed": 8609, "Ġdisrupt": 8610, "cover": 8611, "ĠWW": 8612, "Ġpreced": 8613, "Ġpoly": 8614, "Ġforest": 8615, "wered": 8616, "Ġcareful": 8617, "mat": 8618, "reprene": 8619, "vard": 8620, "Ġamid": 8621, "ĠHistory": 8622, "79": 8623, "ĠHospital": 8624, "isting": 8625, "ĠAle": 8626, "Ġauthent": 8627, "quest": 8628, "ĠIllinois": 8629, "ĠCBS": 8630, "ĠSony": 8631, "uction": 8632, "Ġham": 8633, "geon": 8634, "Related": 8635, "dit": 8636, "ĠAp": 8637, "74": 8638, "72": 8639, "rine": 8640, "Ġtransportation": 8641, "ĠVancouver": 8642, "ĠGaza": 8643, "Ġhanded": 8644, "Ġprotocol": 8645, "Ġconsistently": 8646, "Ġmountain": 8647, "Ġ52": 8648, "Ġreads": 8649, "ĠStat": 8650, "Ġpref": 8651, "Ġclothes": 8652, "Ġattitude": 8653, "iability": 8654, "ĠShare": 8655, "ĠKennedy": 8656, "Ġporn": 8657, "Ġprincip": 8658, "ĠFreedom": 8659, "Ġdepends": 8660, "Ġmining": 8661, "Ġpetition": 8662, "Ġnoting": 8663, "Ġwarrant": 8664, "des": 8665, "Ġconce": 8666, "Ġcolors": 8667, "Ġlowest": 8668, "ĠAnderson": 8669, "ĠTri": 8670, "Ġaddressed": 8671, "ĠFamily": 8672, "bi": 8673, "unes": 8674, "Ġentr": 8675, "Ste": 8676, "ĠStadium": 8677, "xx": 8678, "Ġthrowing": 8679, "Ġje": 8680, "Ġfruit": 8681, "Ġvirtually": 8682, "!)": 8683, "Ġstone": 8684, "Ġfoss": 8685, "ĠMean": 8686, "Ġguarantee": 8687, "Ġreferend": 8688, "Both": 8689, "??": 8690, "Ġspeaks": 8691, "ĠBaltimore": 8692, "inch": 8693, "Ġsteel": 8694, "Ġclosing": 8695, "Ġreader": 8696, "dri": 8697, "FF": 8698, "Ġbuff": 8699, "Ġpersonality": 8700, "Ġappreciate": 8701, "ĠCre": 8702, "ĠIraqi": 8703, "Ġsurf": 8704, "ĠEnvironment": 8705, "Ġnerv": 8706, "iences": 8707, "maker": 8708, "Ġkm": 8709, "keep": 8710, "Ġhandling": 8711, "Ġprofits": 8712, "ordon": 8713, "Ġgrav": 8714, "Ġmarks": 8715, "low": 8716, "Ġtries": 8717, "ĠBroad": 8718, "Ġcontributions": 8719, "ĠEngine": 8720, "ropri": 8721, "zed": 8722, "Ġspiritual": 8723, "Ġconversations": 8724, "Ġfantastic": 8725, "ĠTro": 8726, "Ġlands": 8727, "Ġconsole": 8728, "ila": 8729, "Ġhorror": 8730, "ppers": 8731, "\".[": 8732, "icity": 8733, "Ġgains": 8734, "Ġcovering": 8735, "Ġtea": 8736, "ivals": 8737, "ĠHarris": 8738, "Her": 8739, "Ġhint": 8740, "Ġastron": 8741, "aval": 8742, "Ġshoulder": 8743, "scale": 8744, "Ġwrest": 8745, "Ġguest": 8746, "ĠExt": 8747, "Ġaccommod": 8748, "uted": 8749, "uits": 8750, "Ġdepression": 8751, "ĠCA": 8752, "Ġ_": 8753, "ĠLewis": 8754, "Ġlucky": 8755, "ĠBang": 8756, "Ġencouraged": 8757, "flix": 8758, "amac": 8759, "Ġjudges": 8760, "Ġincidents": 8761, "ĠCleveland": 8762, "Ġdrew": 8763, "Ġsubsequent": 8764, "ira": 8765, "Ġspoken": 8766, "ĠHoward": 8767, "annels": 8768, "ĠBad": 8769, "Ġbrown": 8770, "Ġbacter": 8771, "Please": 8772, "ixed": 8773, "Ġrhet": 8774, "Ġranks": 8775, "ĠGetty": 8776, "Ġphotograp": 8777, "Ġinflation": 8778, "Ġinner": 8779, "ĠIntelligence": 8780, "ĠPo": 8781, "itting": 8782, "ĠBa": 8783, "Ġmaps": 8784, "abeth": 8785, "ĠPatri": 8786, "ported": 8787, "ijing": 8788, "plate": 8789, "Ġdivided": 8790, "Ġ1995": 8791, "ĠNATO": 8792, "********": 8793, "Ġparalle": 8794, "Ġdrama": 8795, "ĠMexican": 8796, "Ġdistributed": 8797, "Ġgal": 8798, "Ġinnovation": 8799, "Ġswing": 8800, "unicip": 8801, "Ġcust": 8802, "ĠUnfortunately": 8803, "Ġpremium": 8804, "Ġvoter": 8805, "Ġpermit": 8806, "Ġrevel": 8807, "ĠKong": 8808, "Ġtrem": 8809, "Ġdance": 8810, "Ġclim": 8811, "pled": 8812, "ĠLas": 8813, "Ġefficiency": 8814, "Ġpromises": 8815, "ĠIndeed": 8816, "Note": 8817, "eding": 8818, "ĠCH": 8819, "ĠWhich": 8820, "Ġballot": 8821, "Ġ51": 8822, "pie": 8823, "ĠAdv": 8824, "Ġtemperatures": 8825, "ĠSamsung": 8826, "Ġportray": 8827, "Ġspokesperson": 8828, "Ġlocked": 8829, "Ġlying": 8830, "Ġimproving": 8831, "Ġthrew": 8832, "Ġjoy": 8833, "Ġdump": 8834, "Art": 8835, "Ġmusical": 8836, "PP": 8837, "Ġmistakes": 8838, "dated": 8839, "Ġshout": 8840, "ĠStart": 8841, "Ġhomeless": 8842, "conf": 8843, "Ġreplacement": 8844, "eries": 8845, "Ġcomedy": 8846, "Ġchecks": 8847, "ĠWithout": 8848, "ĠMoon": 8849, "Ġinstrument": 8850, "ounce": 8851, "ĠConnect": 8852, "Ġacknowledged": 8853, "Ġbarrel": 8854, "Ġresponses": 8855, "Ġprotecting": 8856, "backs": 8857, "ĠDet": 8858, "ÂĴ": 8859, "Ġsilver": 8860, "Ġcopies": 8861, "heim": 8862, "Ġles": 8863, "ĠAC": 8864, "Ġdad": 8865, "Ġbreaks": 8866, "ĠPlus": 8867, "ĠBuff": 8868, "Ġcommonly": 8869, "Ġlets": 8870, "Ġlegacy": 8871, "itage": 8872, "Ġprotein": 8873, "Ġmathem": 8874, "Ġjoke": 8875, "amacare": 8876, "erted": 8877, "hop": 8878, "arre": 8879, "Ġpassengers": 8880, "2015": 8881, "Ġyellow": 8882, "ĠMarvel": 8883, "Ġnaturally": 8884, "Your": 8885, "ĠScient": 8886, "Ġnomination": 8887, "Source": 8888, "Ġmeasured": 8889, "aping": 8890, "oded": 8891, "alia": 8892, "ĠUse": 8893, "Ġabandoned": 8894, "Ġmad": 8895, "ĠPrince": 8896, "Ġstudied": 8897, "800": 8898, "ĠFootball": 8899, "helsea": 8900, "Ġdiverse": 8901, "argo": 8902, "Ġacquired": 8903, "ieties": 8904, "ĠLyn": 8905, "Cons": 8906, "esty": 8907, "Ġsoil": 8908, "ĠMarsh": 8909, "Ġdemonstrated": 8910, "Ġblast": 8911, "Ġrear": 8912, "Ġfunded": 8913, "Ġheadquarters": 8914, "hesis": 8915, "yo": 8916, "Ġstolen": 8917, "Ġscan": 8918, "Ġcounts": 8919, "Ġtape": 8920, "Ġpartnership": 8921, "Ġmidfield": 8922, "ĠNOT": 8923, "Ġ(âĢľ": 8924, "Ġupgrade": 8925, "ĠCost": 8926, "ĠAtlantic": 8927, "yer": 8928, "Ġmarch": 8929, "Ġordinary": 8930, "ĠAud": 8931, "ĠNev": 8932, "Ġrom": 8933, "aware": 8934, "Ġliterature": 8935, "Ġplain": 8936, "Ġstages": 8937, "ĠâĢ¢": 8938, "Ġassert": 8939, "Ġ1994": 8940, "high": 8941, "ĠAI": 8942, "Ġhelpful": 8943, "Ġarrive": 8944, "Ġexit": 8945, "Ġscope": 8946, "Ġfalls": 8947, "63": 8948, "dog": 8949, "Ġignored": 8950, "BM": 8951, "Ġtwenty": 8952, "eters": 8953, "ĠMaster": 8954, "Ġclock": 8955, "Ġcompe": 8956, "inction": 8957, "Ġvirus": 8958, "ĠTrib": 8959, "Ġreferendum": 8960, "Ġinequ": 8961, "Ġunions": 8962, "ĠDoes": 8963, "assador": 8964, "ĠGun": 8965, "Ġconservatives": 8966, "Ġrif": 8967, "Ġgrid": 8968, "Ġsymp": 8969, "Ġfestival": 8970, "Ġfro": 8971, "Ġshopping": 8972, "Ġwaters": 8973, "ĠPop": 8974, "Ġcapabilities": 8975, "ĠBron": 8976, "Ġax": 8977, "lahoma": 8978, "Ġusage": 8979, "ĠHind": 8980, "iate": 8981, "zing": 8982, "ĠEmpire": 8983, "aeda": 8984, "ĠAbb": 8985, "ington": 8986, "ĠIndiana": 8987, "iley": 8988, "Ġtransactions": 8989, "erg": 8990, "Ġhoped": 8991, "Ġdistract": 8992, "ĠAst": 8993, "Ġguitar": 8994, "VE": 8995, "ĠEag": 8996, "Ġsty": 8997, "Ġramp": 8998, "Ġassessment": 8999, "ctic": 9000, "Ġuniversities": 9001, "ĠDave": 9002, "Ġmoon": 9003, "Ġmonitoring": 9004, "ormal": 9005, "acket": 9006, "bridge": 9007, "Ġrepresenting": 9008, "Facebook": 9009, "Ġratio": 9010, "ĠDeath": 9011, "encing": 9012, "ught": 9013, "62": 9014, "ĠProv": 9015, "Ġconventional": 9016, "comes": 9017, "UST": 9018, "orge": 9019, "Ġtrave": 9020, "ĠSet": 9021, "Ġtracking": 9022, "door": 9023, "ntil": 9024, "ĠSometimes": 9025, "61": 9026, "only": 9027, "shire": 9028, "Ġhung": 9029, "ĠSus": 9030, "Ġreliable": 9031, "Ġtie": 9032, "Ġproposals": 9033, "Ġskept": 9034, "ĠHell": 9035, "Ġreplied": 9036, "ĠRos": 9037, "fund": 9038, "uh": 9039, "Ġcriticized": 9040, "Ġappearances": 9041, "rimin": 9042, "ĠHa": 9043, "ecutive": 9044, "ela": 9045, "Ġracism": 9046, "Ġinsisted": 9047, "organ": 9048, "Ġintroduction": 9049, "Ġ2020": 9050, "Ġappointed": 9051, "dney": 9052, "ĠBureau": 9053, "olph": 9054, "agic": 9055, "ĠPass": 9056, "cut": 9057, "Ke": 9058, "ĠLine": 9059, "Ġbeauty": 9060, "Ġconcrete": 9061, "Ġreceiver": 9062, "Ġsupplies": 9063, "Ġperforming": 9064, "made": 9065, "ji": 9066, "Ġbub": 9067, "Ġexch": 9068, "rite": 9069, "Ġvisiting": 9070, "ĠTechnology": 9071, "ĠDenver": 9072, "ocument": 9073, "EE": 9074, "omes": 9075, "ĠCapt": 9076, "theless": 9077, "RL": 9078, "Ġletting": 9079, "AND": 9080, "Ġdeficit": 9081, "Ġclassified": 9082, "ĠGalaxy": 9083, "Ġauto": 9084, "HT": 9085, "Ġrender": 9086, "Ġabsor": 9087, "ĠOrig": 9088, "Ġswim": 9089, "Ġaccomplish": 9090, "Ġprogramme": 9091, "Ġpresidency": 9092, "crib": 9093, "Ġblocked": 9094, "ĠSweden": 9095, "archy": 9096, "Ġdust": 9097, "ĠUtah": 9098, "Ġdrove": 9099, "Ġlandscape": 9100, "Ġcance": 9101, "ĠPortland": 9102, "plus": 9103, "Ġdismissed": 9104, "ĠLA": 9105, "Ġhyper": 9106, "Ġabroad": 9107, "Ġbonus": 9108, "ĠJam": 9109, "ĠTour": 9110, "har": 9111, "Ġsequence": 9112, "Ġpredicted": 9113, "Ġsenator": 9114, "Â°": 9115, "ĠAge": 9116, "Ġdomain": 9117, "ĠCode": 9118, "Ġec": 9119, "Ġmuseum": 9120, "Ġwarn": 9121, "ĠAssociated": 9122, "acco": 9123, "Ġpersons": 9124, "NS": 9125, "Ġdub": 9126, "iano": 9127, "aga": 9128, "Ġrequested": 9129, "Ġtrigger": 9130, "ĠOntario": 9131, "Ġhockey": 9132, "ĠCorpor": 9133, "Ġartific": 9134, "Ġdates": 9135, "Ġtestimony": 9136, "Ġcenters": 9137, "Ð»": 9138, "Ġrocket": 9139, "irts": 9140, "Ġves": 9141, "Ġtransit": 9142, "Ġcongressional": 9143, "Ġentitled": 9144, "ultane": 9145, "Ġspokeswoman": 9146, "ĠFront": 9147, "ĠNintendo": 9148, "ĠAlexander": 9149, "Ġrescue": 9150, "ĠCooper": 9151, "mony": 9152, "Ġassign": 9153, "ĠBon": 9154, "Ġequality": 9155, "Ġpatch": 9156, "Ġurged": 9157, "Ġbread": 9158, "ĠOlympic": 9159, "Ġdocumentary": 9160, "Ġveterans": 9161, "Ġclar": 9162, "fol": 9163, "93": 9164, "ais": 9165, "king": 9166, "ĠâĢĿ": 9167, "pton": 9168, "Ġrecall": 9169, "Ġpopulations": 9170, "94": 9171, "ĠLow": 9172, "Ġbreath": 9173, "Still": 9174, "92": 9175, "rooms": 9176, "Ġwhenever": 9177, "Ġviolation": 9178, "Ġtactics": 9179, "Ġwider": 9180, "71": 9181, "ounding": 9182, "ĠKar": 9183, "Ġtargeting": 9184, "Yet": 9185, "through": 9186, "Ġpursue": 9187, "Ġsalt": 9188, "\">": 9189, "Are": 9190, "izabeth": 9191, "Ġfiring": 9192, "don": 9193, "ĠMill": 9194, "Ġacid": 9195, "Ġmole": 9196, "inating": 9197, "Ġrestaurants": 9198, "Ġcompare": 9199, "73": 9200, "fare": 9201, "Comp": 9202, "orous": 9203, "ennis": 9204, "Ġwedd": 9205, "Ġemployed": 9206, "ĠRoberts": 9207, "Ġcontrad": 9208, "ĠBible": 9209, "Ġpolitically": 9210, "Ġphrase": 9211, "Ġsatellite": 9212, "ĠCro": 9213, "Ġsurvival": 9214, "Ġretirement": 9215, "Ġbanking": 9216, "ĠForm": 9217, "Ġbrilliant": 9218, "isons": 9219, "ĠGirl": 9220, "atar": 9221, "Ġchannels": 9222, "Ġservers": 9223, "ĠBeijing": 9224, "Ġsoccer": 9225, "trans": 9226, "aver": 9227, "ĠMach": 9228, "they": 9229, "Ġintroduce": 9230, "ĠJustin": 9231, "Ġexperiments": 9232, "enez": 9233, "Ġprisoners": 9234, "rapped": 9235, "Ġcig": 9236, "ĠWH": 9237, "afe": 9238, "jud": 9239, "Ġfighter": 9240, "600": 9241, "Ġscientist": 9242, "OK": 9243, "ĠYOU": 9244, "usalem": 9245, "ĠList": 9246, "Ġsubmit": 9247, "Ġapproached": 9248, "ĠAward": 9249, "Ġmonthly": 9250, "ĠLiverpool": 9251, "Ġdesigns": 9252, "Ġrepresentatives": 9253, "Ġtitled": 9254, "ordinary": 9255, "Ġquote": 9256, "Ġpopularity": 9257, "olves": 9258, "Ġabilities": 9259, "oenix": 9260, "Ġcul": 9261, "ĠPD": 9262, "Ġmembership": 9263, "Ġinvestigations": 9264, "Ġfocusing": 9265, "mans": 9266, "Ġhosp": 9267, "Ġbab": 9268, "ĠBridge": 9269, "Though": 9270, "ĠMaryland": 9271, "Ġsaving": 9272, "pa": 9273, "Ġrush": 9274, "ĠGovernor": 9275, "Ġshadow": 9276, "ouri": 9277, "bow": 9278, "ĠHur": 9279, "ĠBase": 9280, "Ġobjective": 9281, "berry": 9282, "ĠTed": 9283, "emed": 9284, "erts": 9285, "ederation": 9286, "Ġmit": 9287, "Ġprepar": 9288, "Ġtips": 9289, "ĠWas": 9290, "Ġpipeline": 9291, "David": 9292, "Ġchildhood": 9293, "ika": 9294, "Ġratings": 9295, "Ġthorough": 9296, "Ġentreprene": 9297, "enter": 9298, "ĠVill": 9299, "ĠDutch": 9300, "was": 9301, "break": 9302, "Ġactively": 9303, "ĠHarvard": 9304, "Ġpig": 9305, "ĠSom": 9306, "Ġdemanding": 9307, "Ġloose": 9308, "asty": 9309, "ĠBra": 9310, "Ġunexpected": 9311, "CO": 9312, "Ġsmoking": 9313, "Ġsmell": 9314, "Ġdeny": 9315, "Ġuniversal": 9316, "Ġforecast": 9317, "Ġargues": 9318, "Ġphenomenon": 9319, "Ġoverseas": 9320, "mers": 9321, "olds": 9322, "Ġsettled": 9323, "walk": 9324, "ĠBeck": 9325, "Ġgenerations": 9326, "Ġweekly": 9327, "Ġchicken": 9328, "Ġpreparing": 9329, "Ġ95": 9330, "Ġsmartphone": 9331, "Ġproducers": 9332, "Ġbutt": 9333, "ĠPA": 9334, "Ġlegislative": 9335, "Ġanxiety": 9336, "Ġdisturb": 9337, "ĠHave": 9338, "Ġinnocent": 9339, "minute": 9340, "ĠClick": 9341, "Ġmortg": 9342, "Ġcelebrate": 9343, "Dem": 9344, "ĠUr": 9345, "iki": 9346, "Ġprovision": 9347, "ĠDO": 9348, "Ġkeys": 9349, "ded": 9350, "Ġshame": 9351, "Ġarguing": 9352, "ĠDesign": 9353, "held": 9354, "Ġquestioned": 9355, "Ġforcing": 9356, "ĠCow": 9357, "ĠHop": 9358, "ompson": 9359, "agh": 9360, "âĶ": 9361, "Ġbroader": 9362, "Ġencounter": 9363, "SL": 9364, "Ġflags": 9365, "Ġfool": 9366, "Ġmac": 9367, "Ġ53": 9368, "Ġdeadly": 9369, "Ġfur": 9370, "84": 9371, "Ġreverse": 9372, "oz": 9373, "Ġweigh": 9374, "ĠEdward": 9375, "ĠAmong": 9376, "Ġtens": 9377, "Ġ~": 9378, "Ġmos": 9379, "Ġwealthy": 9380, "ĠObamacare": 9381, "Ġunpre": 9382, "Ġmaintained": 9383, "Ġsurely": 9384, "Ġshield": 9385, "ĠProp": 9386, "ocolate": 9387, "oret": 9388, "Ġsecondary": 9389, "isa": 9390, "aved": 9391, "Sim": 9392, "Ġsavings": 9393, "irlf": 9394, "Ġroof": 9395, "Ġstability": 9396, "Ġcivilian": 9397, "Ġtab": 9398, "elson": 9399, "Äĥ": 9400, "ĠCarter": 9401, "Ġreveals": 9402, "mind": 9403, "Ġmini": 9404, "Ġalarm": 9405, "Ġanniversary": 9406, "Ġsorts": 9407, "ois": 9408, "ĠAk": 9409, "vernment": 9410, "El": 9411, "Ġtonight": 9412, "Ġreleases": 9413, "ĠHon": 9414, "Ġrooms": 9415, "irlfriend": 9416, "isk": 9417, "ĠGulf": 9418, "Ġoutrage": 9419, "Ġprosecutors": 9420, "ĠLeft": 9421, "Ġdisorder": 9422, "inals": 9423, "Ġexha": 9424, "orious": 9425, "Ġshr": 9426, "Ġrelax": 9427, "Ġwindows": 9428, "Ġthreatening": 9429, "Ġdifferently": 9430, "Ġharassment": 9431, "Ġquoted": 9432, "Ġhealthcare": 9433, "Ġsubmitted": 9434, "Ġarbit": 9435, "Ġlunch": 9436, "step": 9437, "itter": 9438, "ĠRun": 9439, "Ġreforms": 9440, "Ġtorture": 9441, "rection": 9442, "Ġfate": 9443, "Ġstored": 9444, "Ġokay": 9445, "ĠBelg": 9446, "Ġpropaganda": 9447, "Ġspots": 9448, "Ġinstructions": 9449, "ĠVietnam": 9450, "Ġsevent": 9451, "Ġrounds": 9452, "Ġodds": 9453, "Ġ1992": 9454, "aa": 9455, "Ġaer": 9456, "html": 9457, "tenance": 9458, "Ġerrors": 9459, "ested": 9460, "ĠOklahoma": 9461, "Ġhydro": 9462, "icism": 9463, "GA": 9464, "Ġdelic": 9465, "ailed": 9466, "ĠLiberal": 9467, "Ġsilence": 9468, "ĠGraham": 9469, "acts": 9470, "ĠWarren": 9471, "Ġgraduate": 9472, "ĠSab": 9473, "Ġaffordable": 9474, "Ġcircle": 9475, "sect": 9476, "ĠBloom": 9477, "Ġcooperation": 9478, "Ġpicks": 9479, "Ġsear": 9480, "itary": 9481, "ĠSarah": 9482, "ĠFall": 9483, "orship": 9484, "ĠExpl": 9485, "Ġstriking": 9486, "Ġpuzz": 9487, "Ġpersu": 9488, "Ġstreaming": 9489, "Ġcomprehensive": 9490, "race": 9491, "Ġimportantly": 9492, "Ġcow": 9493, "Ġpossess": 9494, "Watch": 9495, "Ġfing": 9496, "Ġexecution": 9497, "ĠRuby": 9498, "lined": 9499, "rows": 9500, "Ġintim": 9501, "Ġstruggled": 9502, "ĠPerson": 9503, "Ġassass": 9504, "ĠSilver": 9505, "ĠLeader": 9506, "uten": 9507, "ahu": 9508, "Ġgent": 9509, "Ty": 9510, "ĠPrice": 9511, "Reuters": 9512, "ishop": 9513, "Ġdeserve": 9514, "ĠJerusalem": 9515, "Ġlanding": 9516, "Ġcalm": 9517, "Ġalter": 9518, "Ġceremony": 9519, "Ġassumed": 9520, "Ġdemonstrate": 9521, "Ġdifficulty": 9522, "83": 9523, "Ġages": 9524, "Ġpron": 9525, "Ġdying": 9526, "Ġhal": 9527, "Ġdistingu": 9528, "asury": 9529, "Ġstepped": 9530, "ethe": 9531, "Ġborders": 9532, "Ġchest": 9533, "ĠWolf": 9534, "ĠLt": 9535, "Ġadventure": 9536, "Ġpointing": 9537, "ova": 9538, "Ġwaves": 9539, "Ġkilomet": 9540, "essee": 9541, "ierce": 9542, "ĠNetflix": 9543, "atern": 9544, "Ġautonom": 9545, "eals": 9546, "Ġprecisely": 9547, "Ġarchitecture": 9548, "Ġgreatly": 9549, "ĠDeb": 9550, "Ġpromising": 9551, "Ġconsent": 9552, "bury": 9553, "Ġconsideration": 9554, "ĠTen": 9555, "Ġdrives": 9556, "Ġdialogue": 9557, "ĠMain": 9558, "Ġtremend": 9559, "ĠBud": 9560, "asant": 9561, "Ġnewsletter": 9562, "Ġrookie": 9563, "Ġawarded": 9564, "ĠMeanwhile": 9565, "after": 9566, "Ġrepeat": 9567, "ĠStory": 9568, "Ġcontribution": 9569, "ĠTele": 9570, "Ġburning": 9571, "iev": 9572, "party": 9573, "Ġsimultane": 9574, "ĠScottish": 9575, "ĠVice": 9576, "Ġdonations": 9577, "ĠIndust": 9578, "akh": 9579, "Ġinterf": 9580, "itol": 9581, "ĠMagic": 9582, "Ġvoices": 9583, "Ġanalyst": 9584, "ĠBruce": 9585, "ĠTech": 9586, "ceptions": 9587, "Ġgif": 9588, "Ġfrequency": 9589, "ĠCommon": 9590, "Ġprocedure": 9591, "Ġwanting": 9592, "ĠPres": 9593, "Ġexecutives": 9594, "Ġplayoffs": 9595, "lee": 9596, "oice": 9597, "Ġstaying": 9598, "apolis": 9599, "Ġbirds": 9600, "Ġbias": 9601, "VD": 9602, "ĠHong": 9603, "ĠAz": 9604, "izer": 9605, "Ġinches": 9606, "Ġtrillion": 9607, "omy": 9608, "holders": 9609, "Ġhighlights": 9610, "Ġsemi": 9611, "Ġremarkable": 9612, "Ġwhereas": 9613, "EX": 9614, "ributes": 9615, "ĠPalestinians": 9616, "Ġknee": 9617, "open": 9618, "ĠJonathan": 9619, "Ġans": 9620, "raig": 9621, "Ġimplications": 9622, "scribe": 9623, "Ġformation": 9624, "Ġsuperior": 9625, "Ġstrategies": 9626, "itual": 9627, "ĠBerlin": 9628, "Step": 9629, "ĠLink": 9630, "stal": 9631, "div": 9632, "ĠSydney": 9633, "ĠMORE": 9634, "Ġcategories": 9635, "ĠArk": 9636, "Ġfet": 9637, "Ġfollowers": 9638, "Ġcream": 9639, "Story": 9640, "portation": 9641, "FO": 9642, "Ġcontacted": 9643, "Ms": 9644, "Ġjudgment": 9645, "annon": 9646, "Ġsmile": 9647, "Ġinfo": 9648, "Ġemerging": 9649, "igious": 9650, "rif": 9651, "js": 9652, "onder": 9653, "omed": 9654, "yes": 9655, "bered": 9656, "vision": 9657, "ĠEff": 9658, "vertisements": 9659, "iffs": 9660, "hatt": 9661, "Ġaccessible": 9662, "Ġcrimin": 9663, "TP": 9664, "Ġphysically": 9665, "Ġassigned": 9666, "Ġ54": 9667, "ĠAndre": 9668, "Ġguidelines": 9669, "Ġdefeated": 9670, "Ġwounded": 9671, "Ġtrials": 9672, "Ġstem": 9673, "Ġmanaging": 9674, "Ġspell": 9675, "Ġministry": 9676, "Ġgrade": 9677, "Ġcoinc": 9678, "Ġriding": 9679, "Ġindicates": 9680, "Ġcenturies": 9681, "Christ": 9682, "cest": 9683, "ĠAffairs": 9684, "Ġopens": 9685, "aki": 9686, "Ġpharm": 9687, "lla": 9688, "->": 9689, "Ġmeaningful": 9690, "Ġtiss": 9691, "erent": 9692, "ĠMrs": 9693, "Ġease": 9694, "child": 9695, "Ġmargin": 9696, "ĠStore": 9697, "Ġclothing": 9698, "ĠâĪĴ": 9699, "ĠTes": 9700, "ĠSix": 9701, "ĠCapital": 9702, "Ġparticipation": 9703, "cedented": 9704, "Mus": 9705, "Ġrevers": 9706, "aria": 9707, "Ġpoison": 9708, "ĠBrexit": 9709, "Ġ120": 9710, "ĠYemen": 9711, "Ġlapt": 9712, "Ġcompeting": 9713, "Ġmemories": 9714, "ĠCS": 9715, "Ġtheories": 9716, "Ġrecipe": 9717, "Ġgross": 9718, "umble": 9719, "author": 9720, "hard": 9721, "91": 9722, "Ġpassage": 9723, "sl": 9724, "Ġaged": 9725, "ĠCredit": 9726, "Ġbin": 9727, "Ġdrone": 9728, "Ġblank": 9729, "Ġdispute": 9730, "Ġdamaged": 9731, "Ġ1993": 9732, "van": 9733, "ĠHamilton": 9734, "base": 9735, "Ġsubstance": 9736, "Ġhosted": 9737, "TER": 9738, "Google": 9739, "ĠChelsea": 9740, "ĠLam": 9741, "Ġpromoting": 9742, "Ġfacilit": 9743, "Ġopenly": 9744, "ĠInstagram": 9745, "Ġ1950": 9746, "ĠVik": 9747, "View": 9748, "ĠChildren": 9749, "ĠCrime": 9750, "Ġclinical": 9751, "Out": 9752, "Ġnic": 9753, "eremy": 9754, "ĠHold": 9755, "bits": 9756, "Ġinvestments": 9757, "Ġconsensus": 9758, "even": 9759, "igate": 9760, "ĠLeon": 9761, "ses": 9762, "ĠFal": 9763, "Ġeducational": 9764, "ito": 9765, "const": 9766, "Ġdish": 9767, "Ġmanifest": 9768, "Ġcustody": 9769, "week": 9770, "82": 9771, "Ġeligible": 9772, "ĠHawai": 9773, "Ġlegally": 9774, "Ġmissions": 9775, "Ġendorse": 9776, "Ġgate": 9777, "eria": 9778, "Ġmemo": 9779, "ĠGT": 9780, "Ġtables": 9781, "ĠPict": 9782, "Ġnin": 9783, "Ġstudying": 9784, "Hz": 9785, "Ġ?": 9786, "Ġcharity": 9787, "aration": 9788, "adi": 9789, "Ġaddresses": 9790, "Ġinspect": 9791, "Ġdiscount": 9792, "rix": 9793, "left": 9794, "Ġbattles": 9795, "ALL": 9796, "ĠDer": 9797, "Ġ250": 9798, "ĠAssembly": 9799, "Ġathletes": 9800, "Pre": 9801, "ĠTrade": 9802, "Ġfossil": 9803, "Ġenthusi": 9804, "ĠManagement": 9805, "iac": 9806, "Ġsuspects": 9807, "Ġtired": 9808, "Ġhelic": 9809, "Act": 9810, "Ġcounterpart": 9811, "Ġna": 9812, "achel": 9813, "Ġdating": 9814, "ĠEth": 9815, "Ġspectrum": 9816, "ĠMetro": 9817, "ateral": 9818, "ĠStation": 9819, "ĠBal": 9820, "Ġpresentation": 9821, "Ġlux": 9822, "gered": 9823, "arts": 9824, "Ġbottle": 9825, "Ġtap": 9826, "riors": 9827, "Ġvig": 9828, "Ġfundra": 9829, "Ġenhance": 9830, "assy": 9831, "ĠSean": 9832, "Ġtherapy": 9833, "ĠWales": 9834, "ĠExper": 9835, "Ġperceived": 9836, "market": 9837, "ĠTok": 9838, "Ġdominant": 9839, "Def": 9840, "math": 9841, "Ġbacking": 9842, "ĠFestival": 9843, "Ġunderlying": 9844, "Ġdefending": 9845, "ĠThrough": 9846, "Ġracing": 9847, "Ġdiscussing": 9848, "Ġburden": 9849, "Ġexpanding": 9850, "Ġmuscle": 9851, "Ġstops": 9852, "uz": 9853, "Ġbeings": 9854, "ĠMarx": 9855, "ĠEqu": 9856, "Ġtransaction": 9857, "ĠUber": 9858, "Ġ99": 9859, "Cal": 9860, "Ġrecruit": 9861, "itudes": 9862, "acher": 9863, "ĠGary": 9864, "Ġmood": 9865, "Ġpicking": 9866, "81": 9867, "lando": 9868, "ylum": 9869, "player": 9870, "Ġmanagers": 9871, "orable": 9872, "Ġgathering": 9873, "Ġhopefully": 9874, "angle": 9875, "ĠSon": 9876, "alysis": 9877, "ĠVideo": 9878, "section": 9879, "Ġcrus": 9880, "ĠLibya": 9881, "Ġimpression": 9882, "Ġhip": 9883, "olar": 9884, "Ã¢": 9885, "Ġscrut": 9886, "Ġroy": 9887, "ĠTai": 9888, "igenous": 9889, "Ġinstitution": 9890, "ĠBatman": 9891, "}}": 9892, "Ġstere": 9893, "Ġprocedures": 9894, "Ã±": 9895, "Ġpocket": 9896, "Ġcreatures": 9897, "ĠBoe": 9898, "Ġcompat": 9899, "Ġarrival": 9900, "ptions": 9901, "sa": 9902, "watch": 9903, "Ġeager": 9904, "Ġpollution": 9905, "iture": 9906, "Ġkitchen": 9907, "Ġfoods": 9908, "ocial": 9909, "Ġrecre": 9910, "Ġsurviv": 9911, "roph": 9912, "Ġorganic": 9913, "ĠPentagon": 9914, "ĠMorgan": 9915, "Ġshipping": 9916, "Ġcapitalism": 9917, "Ġinsult": 9918, "Ġtiming": 9919, "sub": 9920, "odox": 9921, "Ġrequirement": 9922, "Ġunfair": 9923, "aders": 9924, "Ġ56": 9925, "Ġmice": 9926, "ĠAssad": 9927, "Rem": 9928, "ĠRepresent": 9929, "ĠMess": 9930, "ĠMLS": 9931, "bing": 9932, "atively": 9933, "ĠElizabeth": 9934, "ĠOp": 9935, "Ġdiseases": 9936, "Mod": 9937, "Ġindustries": 9938, "ĠOakland": 9939, "dy": 9940, "Ġbowl": 9941, "oln": 9942, "ĠMurray": 9943, "ĠCreat": 9944, "Ġsed": 9945, "Ġhelicop": 9946, "Ġdivor": 9947, "agger": 9948, "Ġbeach": 9949, "Ġpunishment": 9950, "abet": 9951, "Ġshell": 9952, "***": 9953, "Ġfled": 9954, "Ġhospitals": 9955, "missions": 9956, "Ġtons": 9957, "AF": 9958, "ĠKick": 9959, "Ġseed": 9960, "ogy": 9961, "ĠComey": 9962, "opyright": 9963, "Ġstatist": 9964, "Ġengineers": 9965, "Ġobsc": 9966, "Ġhire": 9967, "SC": 9968, "Ġmodule": 9969, "AY": 9970, "amous": 9971, "Ġcoaching": 9972, "oca": 9973, "Ġanswered": 9974, "rac": 9975, "Reg": 9976, "TR": 9977, "Ġgraphics": 9978, "Ġregulatory": 9979, "Ġsovere": 9980, "Ġstance": 9981, "alties": 9982, "Ġbow": 9983, "ĠKeep": 9984, "Click": 9985, "Ġexplaining": 9986, "Ġrhetoric": 9987, "Ġbeating": 9988, "ĠFriend": 9989, "Ġtut": 9990, "ĠEmail": 9991, "rior": 9992, "ĠYeah": 9993, "emic": 9994, "Ġacknowledge": 9995, "ĠMichel": 9996, "Ġprincipal": 9997, "ĠMit": 9998, "Ġpulling": 9999, "erves": 10000, "Ġsignature": 10001, "brid": 10002, "olving": 10003, "Ġconvince": 10004, "ĠRoll": 10005, "Ġvariable": 10006, "cosystem": 10007, "Ġpill": 10008, "Ġsearching": 10009, "ĠOx": 10010, "Ġdies": 10011, "Ġovercome": 10012, "Ġpreferred": 10013, "duction": 10014, "Ġsixth": 10015, "Ġadviser": 10016, "ĠTennessee": 10017, "Ġtrends": 10018, "Ġ!": 10019, "ĠRussell": 10020, "Ġ(\"": 10021, "ĠThompson": 10022, "Ge": 10023, "Ġmerch": 10024, "Ġrebels": 10025, "Ġinteraction": 10026, "Ġperiods": 10027, "ĠYan": 10028, "Ġpsychological": 10029, "Mich": 10030, "ĠSure": 10031, "ĠUsing": 10032, "Ġeconomics": 10033, "ĠCharlie": 10034, "ĠBi": 10035, "Ġoutlets": 10036, "ĠGil": 10037, "ĠIntel": 10038, "Ġsignals": 10039, "pg": 10040, "Ġecho": 10041, "ĠExecutive": 10042, "ĠKentucky": 10043, "Ġtempor": 10044, "Ġbillions": 10045, "Ġlineup": 10046, "Ġmath": 10047, "2013": 10048, "Ġ1991": 10049, "Ġsetup": 10050, "Ġrend": 10051, "Finally": 10052, "netic": 10053, "mic": 10054, "Ġeggs": 10055, "Ġsegment": 10056, "Ġarr": 10057, "Ġbadly": 10058, "kee": 10059, "ĠLi": 10060, "ui": 10061, "Ġsentenced": 10062, "Ġeveryday": 10063, "ĠDragon": 10064, "Ġcommander": 10065, "ĠHoll": 10066, "ĠAN": 10067, "Ġloves": 10068, "unicipal": 10069, "ds": 10070, "Ġgenes": 10071, "NBC": 10072, "Ġbold": 10073, "Ġrequiring": 10074, "Ġbullet": 10075, "Ġinvasion": 10076, "will": 10077, "Comm": 10078, "Ġpartly": 10079, "Ġescal": 10080, "Ġinstant": 10081, "Ġgig": 10082, "ĠJean": 10083, "check": 10084, "Ġarts": 10085, "Ġgene": 10086, "Ġremoval": 10087, "Ġundert": 10088, "Ġupload": 10089, "liest": 10090, "ĠHart": 10091, "Ġtopics": 10092, "ĠIron": 10093, "enezuel": 10094, "Ġinquiry": 10095, "Ġamendment": 10096, "Ġweakness": 10097, "ĠRather": 10098, "news": 10099, "Ġconcepts": 10100, "ĠZe": 10101, "ĠMcK": 10102, "has": 10103, "PL": 10104, "Ġshoes": 10105, "arted": 10106, "ĠSound": 10107, "Ġfabric": 10108, "izza": 10109, "grade": 10110, "ĠDelhi": 10111, "Earlier": 10112, "tsburgh": 10113, "Ġfrequent": 10114, "Ġsections": 10115, "Ġoccurs": 10116, "oli": 10117, "Ġmigrants": 10118, "Ġcompensation": 10119, "Ġengineer": 10120, "eness": 10121, "Ġlad": 10122, "ĠFinally": 10123, "Ġfo": 10124, "Ġattractive": 10125, "ĠBox": 10126, "Ġunve": 10127, "instein": 10128, "Ġ).": 10129, "Ġciting": 10130, "Ġtweets": 10131, "Ġutility": 10132, "arency": 10133, "cor": 10134, "Ġposting": 10135, "Ġridiculous": 10136, "Ġblockchain": 10137, "Ġcler": 10138, "ĠClark": 10139, "Ġspeaker": 10140, "âĶĢ": 10141, "Ġdiam": 10142, "Ø§": 10143, "Ġcorrupt": 10144, "Ġtalented": 10145, "Ġlect": 10146, "Ġcollaps": 10147, "Ġmask": 10148, "âĢĲ": 10149, "necess": 10150, "screen": 10151, "Ġnotable": 10152, "ĠTherefore": 10153, "Ġelder": 10154, "Ġgenre": 10155, "Ġdeadline": 10156, "Ġrolling": 10157, "Ġcarries": 10158, "ĠBM": 10159, "gus": 10160, "Top": 10161, "ĠFinal": 10162, "via": 10163, "ĠET": 10164, "ental": 10165, "Ġapproaches": 10166, "Ġeliminate": 10167, "ĠPriv": 10168, "Ġanalysts": 10169, "Ġsits": 10170, "Ġcens": 10171, "State": 10172, "Ġinstances": 10173, "ĠSimon": 10174, "Ġpublishing": 10175, "Ġunprecedented": 10176, "Ġcolour": 10177, "ĠVe": 10178, "Ġroots": 10179, "ĠPhoenix": 10180, "VP": 10181, "Ġcock": 10182, "Ġbene": 10183, "ĠPsych": 10184, "Ġtoxic": 10185, "Ġcollaboration": 10186, "Ġarc": 10187, "Ġinequality": 10188, "Ġneighbors": 10189, "Ġinsight": 10190, "Ġdramatically": 10191, "ĠHarper": 10192, "Ġhomosexual": 10193, "Ġprize": 10194, "Ġtowns": 10195, "Ġextraordinary": 10196, "Ġperception": 10197, "ĠGordon": 10198, "ĠWhether": 10199, "ĠPhill": 10200, "Ġparad": 10201, "arget": 10202, "Ġgest": 10203, "Ġmaintenance": 10204, "owski": 10205, "rowing": 10206, "ĠGro": 10207, "ĠGO": 10208, "Ġcheaper": 10209, "isdom": 10210, "Ġassociate": 10211, "Ġcoup": 10212, "Mark": 10213, "ĠEvent": 10214, "Ġsheet": 10215, "ĠBow": 10216, "ĠBelow": 10217, "ĠSav": 10218, "ĠCaptain": 10219, "pack": 10220, "Ġcognitive": 10221, "Ġencouraging": 10222, "Ġdreams": 10223, "ĠPers": 10224, "Ġseized": 10225, "Ġinterviewed": 10226, "Ġdeployed": 10227, "Ġviolations": 10228, "Ġcamps": 10229, "Ġcomics": 10230, "Ġconstitu": 10231, "ĠReagan": 10232, "Ġreserved": 10233, "Ġbuck": 10234, "Ġemployers": 10235, "Ġaims": 10236, "atus": 10237, "Ġfunctional": 10238, "Ġmystery": 10239, "Ġdisplayed": 10240, "Paul": 10241, "iban": 10242, "Ġspan": 10243, "Ġloop": 10244, "Ġdelight": 10245, "apore": 10246, "cre": 10247, "AB": 10248, "Ġtraged": 10249, "ĠEconomic": 10250, "ixture": 10251, "ĠSa": 10252, "Ġ57": 10253, "ricane": 10254, "Ġglad": 10255, "Ġoccasionally": 10256, "Ġvend": 10257, "Ġexport": 10258, "TON": 10259, "Ġbirthday": 10260, "Ġheroes": 10261, "Ġfatal": 10262, "estyle": 10263, "oga": 10264, "Ġcorrectly": 10265, "ĠStew": 10266, "Ġprompted": 10267, "wa": 10268, "Ġstamp": 10269, "ĠCole": 10270, "elle": 10271, "Ġcontemporary": 10272, "ĠAccess": 10273, "ĠJenn": 10274, "Ġprospects": 10275, "oting": 10276, "endar": 10277, "Ġirre": 10278, "vi": 10279, "Ġrecommendations": 10280, "mir": 10281, "Ġdiplomatic": 10282, "throp": 10283, "Ġpa": 10284, "ighth": 10285, "Ġbell": 10286, "Ġparallel": 10287, "Ġexclud": 10288, "eling": 10289, "Ġconstitution": 10290, "onz": 10291, "Ġdisappointed": 10292, "Ġmanufacturers": 10293, "Ġadequ": 10294, "Ġintr": 10295, "ĠStaff": 10296, "Ġmoderate": 10297, "ĠEver": 10298, "ĠDog": 10299, "Ġecosystem": 10300, "Ġaccompan": 10301, "Time": 10302, "Ġdemanded": 10303, "Ġ85": 10304, "ĠGDP": 10305, "ĠPhotos": 10306, "Ġnose": 10307, "ĠMontreal": 10308, "ĠDick": 10309, "ailable": 10310, "Ġinterpre": 10311, "Ġpleased": 10312, "2017": 10313, "Ġlabour": 10314, "Ġlifetime": 10315, "ĠBrooklyn": 10316, "ĠTax": 10317, "ĠEst": 10318, "ĠReserve": 10319, "rock": 10320, "Ġcommunicate": 10321, "Ġfights": 10322, "Ġmodified": 10323, "Ġdrunk": 10324, "ĠOcean": 10325, "Ġsessions": 10326, "Ġwedding": 10327, "Ġknock": 10328, "Ġexplosion": 10329, "ĠLibrary": 10330, "Ġbiological": 10331, "Ġlanded": 10332, "Ġrepair": 10333, "ĠEPA": 10334, "Ġ58": 10335, "ĠAuthority": 10336, "Ġsubsc": 10337, "Ġrepresentation": 10338, "ĠGiven": 10339, "ĠBol": 10340, "Ġartificial": 10341, "250": 10342, "leans": 10343, "fit": 10344, "Fi": 10345, "Ġrelation": 10346, "Ġowns": 10347, "ĠKhan": 10348, "ixon": 10349, "ĠAntonio": 10350, "ĠDigital": 10351, "Ġlift": 10352, "agen": 10353, "Ġdesigner": 10354, "rot": 10355, "Ġrecon": 10356, "Thanks": 10357, "Ġemp": 10358, "Ġconsciousness": 10359, "Ġkicked": 10360, "ĠOrder": 10361, "Ġdefender": 10362, "Ġhanging": 10363, "Ġlessons": 10364, "hist": 10365, "Ġimposed": 10366, "Ġguests": 10367, "Ġadopt": 10368, "Ġanonymous": 10369, "150": 10370, "Ġsli": 10371, "Ġconcerning": 10372, "wind": 10373, "Ġpregnant": 10374, "ĠFive": 10375, "incoln": 10376, "ĠBul": 10377, "Ġunderground": 10378, "acre": 10379, "Ġmaintaining": 10380, "Ġasset": 10381, "ĠAlan": 10382, "Ġpunch": 10383, "ĠRome": 10384, "ols": 10385, "bourne": 10386, "Ġshirt": 10387, "Ġingredients": 10388, "Update": 10389, "Ġcheese": 10390, "wed": 10391, "Ġintellig": 10392, "isition": 10393, "ĠChannel": 10394, "ĠConvention": 10395, "Ġpodcast": 10396, "Ġinterior": 10397, "graph": 10398, "\":\"": 10399, "Ġemotions": 10400, "ching": 10401, "human": 10402, "Ġabstract": 10403, "ĠArgent": 10404, "Ġcouples": 10405, "Ġlesson": 10406, "Ġcreature": 10407, "Ġresolve": 10408, "Ġshocked": 10409, "Ġoppose": 10410, "Whe": 10411, "Ġsummit": 10412, "Ġperformances": 10413, "ĠSU": 10414, "Ġvolunteers": 10415, "ĠBurn": 10416, "Dis": 10417, "Ġsoldier": 10418, "Ñĥ": 10419, "some": 10420, "Ġstimul": 10421, "Ġlogo": 10422, "à¤": 10423, "appropri": 10424, "istant": 10425, "Ġterr": 10426, "Ġvocal": 10427, "Ġaccum": 10428, "Ġgirlfriend": 10429, "ĠProtection": 10430, "ben": 10431, "ĠDur": 10432, "ulty": 10433, "SE": 10434, "Ġjumped": 10435, "Ġannoy": 10436, "ĠPage": 10437, "Ġjihad": 10438, "Ġmile": 10439, "Ġnurs": 10440, "ĠLear": 10441, "user": 10442, "Ġmilitants": 10443, "acles": 10444, "Ġguid": 10445, "ĠFant": 10446, "ĠMissouri": 10447, "Ġprofessionals": 10448, "Gener": 10449, "(\"": 10450, "ĠAnna": 10451, "ikh": 10452, "Instead": 10453, "Ġbutter": 10454, "ials": 10455, "Ġswit": 10456, "Ġrefers": 10457, "Ġdesktop": 10458, "dr": 10459, "Ġtraveling": 10460, "Ġlibr": 10461, "gets": 10462, "Ġisolated": 10463, "Ġforum": 10464, "Ġadvocate": 10465, "Ġexisted": 10466, "ĠLim": 10467, "Ġopposing": 10468, "ĠCoal": 10469, "gate": 10470, "Ġrecalled": 10471, "âĢ¦.": 10472, "Next": 10473, "Station": 10474, "ĠCase": 10475, "ĠHan": 10476, "Israel": 10477, "Ġ600": 10478, "Ġintegration": 10479, "Ġdescribing": 10480, "Ġboxes": 10481, "ĠJavaScript": 10482, "ĠOrleans": 10483, "early": 10484, "Ġstro": 10485, "CD": 10486, "ĠMail": 10487, "Ġminimal": 10488, "ĠHal": 10489, "tainment": 10490, "Ġconfused": 10491, "ĠCustom": 10492, "ĠSD": 10493, "umph": 10494, "Ġpeaceful": 10495, "Ġinherent": 10496, "abe": 10497, "odge": 10498, "cal": 10499, "Ġsurrounded": 10500, "Ġvert": 10501, "owned": 10502, "ĠCapitol": 10503, "hattan": 10504, "ĠHand": 10505, "commun": 10506, "Ġholes": 10507, "Ġmeal": 10508, "Ġ1989": 10509, "Ġintegrity": 10510, "ĠKnow": 10511, "ĠPlayer": 10512, "Ġpm": 10513, "ĠBarb": 10514, "Ġinspiration": 10515, "Ġconfiguration": 10516, "ĠRs": 10517, "Ġsne": 10518, "ĠTrust": 10519, "ĠBan": 10520, "hero": 10521, "ðŁ": 10522, "Ġexpense": 10523, "Ġcredits": 10524, "ĠNon": 10525, "Ġsubur": 10526, "Ġelectoral": 10527, "Ġideology": 10528, "Ġyell": 10529, "Ġsilent": 10530, "Ġdual": 10531, "ĠMarine": 10532, "ĠDoctor": 10533, "Ġstack": 10534, "Ġsuspic": 10535, "Ġburied": 10536, "TE": 10537, "ĠNevada": 10538, "iens": 10539, "Ã§": 10540, "imize": 10541, "Ġdesperate": 10542, "ĠOcc": 10543, "starter": 10544, "Ðº": 10545, "Ġscream": 10546, "Ġclip": 10547, "Ġchoosing": 10548, "Ġbombs": 10549, "Trans": 10550, "ĠCB": 10551, "Ġbands": 10552, "Ġteammates": 10553, "Ġfleet": 10554, "ĠSH": 10555, "Ġconvert": 10556, "Ġacceptable": 10557, "tra": 10558, "ĠOrlando": 10559, "ibl": 10560, "Ġjer": 10561, "Gu": 10562, "ĠWright": 10563, "Ġregistration": 10564, "List": 10565, "ĠPortug": 10566, "ĠHitler": 10567, "Ġbrutal": 10568, "SU": 10569, "awks": 10570, "Net": 10571, "ĠMove": 10572, "Ġscar": 10573, "Ġancest": 10574, "ĠOnline": 10575, "ĠAlliance": 10576, "election": 10577, "Ġsubscribe": 10578, "Ġstruggles": 10579, "Ġkeyboard": 10580, "Ġmomentum": 10581, "ĠLeban": 10582, "ĠArea": 10583, "aro": 10584, "Ġpromotion": 10585, "ĠArsenal": 10586, "ĠVen": 10587, "Ġevident": 10588, "Fl": 10589, "Ġquit": 10590, "hire": 10591, "father": 10592, "Name": 10593, "Ġorganisation": 10594, "Ġwondering": 10595, "ĠIndones": 10596, "Ġclosest": 10597, "mits": 10598, "too": 10599, "Ġembrace": 10600, "ĠSteel": 10601, "books": 10602, "ĠFollowing": 10603, "Ġrefugee": 10604, "ĠHamp": 10605, "Ġteeth": 10606, "ART": 10607, "Ġprobe": 10608, "Ġutter": 10609, "Speaking": 10610, "chell": 10611, "Ġathe": 10612, "ĠWord": 10613, "Ġoccasional": 10614, "Ġmonster": 10615, "strong": 10616, "Ġassembly": 10617, "Ġbankrupt": 10618, "Ġreferences": 10619, "isd": 10620, "Ġjournalism": 10621, "Ġexpenses": 10622, "Ġsubsequently": 10623, "oub": 10624, "stop": 10625, "oker": 10626, "Ġpride": 10627, "Ġguards": 10628, "ĠMun": 10629, "Ġinterpretation": 10630, "ĠVenezuel": 10631, "Ġyeah": 10632, "ï¼": 10633, "Ġlin": 10634, "hr": 10635, "grad": 10636, "Ġremoving": 10637, "Ġorbit": 10638, "Gl": 10639, "ĠIndependent": 10640, "ĠWrit": 10641, "Ġprofound": 10642, "ipedia": 10643, "rett": 10644, "2012": 10645, "ĠPittsburgh": 10646, "Ġcompromise": 10647, "Ġknife": 10648, "Ġdistricts": 10649, "Ġexclusively": 10650, "Ġsurvived": 10651, "ĠSource": 10652, "Ġconsiderable": 10653, "Ġmathemat": 10654, "Ġstating": 10655, "Ġengaging": 10656, "ĠCould": 10657, "Ġrefuse": 10658, "Ġbird": 10659, "Ġcharacteristics": 10660, "ĠMountain": 10661, "Ġlobb": 10662, "ĠRaj": 10663, "Ġjustify": 10664, "Ġdominated": 10665, "HP": 10666, "Ġ72": 10667, "QL": 10668, "Ġbriefly": 10669, "ĠNazi": 10670, "bound": 10671, "arson": 10672, "ĠRest": 10673, "Ġchip": 10674, "Ġministers": 10675, "Ġprost": 10676, "Ġelectron": 10677, "Ġtremendous": 10678, "Ġcontrary": 10679, "rend": 10680, "Ġgri": 10681, "Ġsustainable": 10682, "Share": 10683, "Ġloaded": 10684, "Ġflour": 10685, "Ġdisappear": 10686, "Ġnervous": 10687, "Ġroutes": 10688, "orneys": 10689, "Ġproportion": 10690, "Ġsophistic": 10691, "attered": 10692, "Ġexecuted": 10693, "ocated": 10694, "elve": 10695, "ĠDuke": 10696, "utter": 10697, "Ġasylum": 10698, "ĠEveryone": 10699, "Ġgameplay": 10700, "Ġsexually": 10701, "inst": 10702, "Thank": 10703, "Hey": 10704, "ĠBu": 10705, "Ġpir": 10706, "Ġdonors": 10707, "Ġconfusion": 10708, "ĠDream": 10709, "Ġrevolutionary": 10710, "amine": 10711, "cap": 10712, "ĠAaron": 10713, "ĠAndy": 10714, "ĠPant": 10715, "Ġcurious": 10716, "ĠTreasury": 10717, "Ġharsh": 10718, "limited": 10719, "lihood": 10720, "income": 10721, "KE": 10722, "Ġattending": 10723, "Ġ800": 10724, "ĠAdams": 10725, "immer": 10726, "ĠIM": 10727, "Ã¨": 10728, "security": 10729, "UC": 10730, "Ġspeakers": 10731, "Ã³n": 10732, "Ġcabinet": 10733, "Ġnowhere": 10734, "Ag": 10735, "reek": 10736, "Ġflee": 10737, "Ġvoid": 10738, "Ġbrands": 10739, "Ġchronic": 10740, "Ġprinted": 10741, "ĠTesla": 10742, "ĠShort": 10743, "Ġcharging": 10744, "Ġengines": 10745, "Ġphysics": 10746, "reck": 10747, "anim": 10748, "ĠHaving": 10749, "function": 10750, "urse": 10751, "ĠMult": 10752, "Ġconcert": 10753, "scar": 10754, "ĠSheriff": 10755, "inge": 10756, "Ġoutcomes": 10757, "ĠAren": 10758, "ĠOfficer": 10759, "MAN": 10760, "ublished": 10761, "olid": 10762, "otte": 10763, "Ġorient": 10764, "Ġmirror": 10765, "Ġstrengthen": 10766, "ĠGib": 10767, "ĠJun": 10768, "thood": 10769, "Ġfails": 10770, "opt": 10771, "Ġspo": 10772, "Ġobser": 10773, ".]": 10774, "Ġchaos": 10775, "Ġpassenger": 10776, "ĠiPad": 10777, "ĠCurrent": 10778, "Ġcriminals": 10779, "Ġfel": 10780, "ĠSpir": 10781, "Ġsteady": 10782, "ĠRobinson": 10783, "Red": 10784, "700": 10785, "ĠNether": 10786, "merce": 10787, "ĠÂ±": 10788, "Ġrobust": 10789, "ĠCON": 10790, "ĠManhattan": 10791, "white": 10792, "IE": 10793, "Ġendors": 10794, "Ġspeculation": 10795, "ĠChange": 10796, "reshold": 10797, "Ġcertific": 10798, "Ġdeemed": 10799, "ĠTaliban": 10800, "Ġdropping": 10801, "Ġhiring": 10802, "ĠNorm": 10803, "ĠGiants": 10804, "ĠSingapore": 10805, "ĠAlp": 10806, "Ġintegrated": 10807, "ĠPerry": 10808, "Ġpresents": 10809, "Ġavo": 10810, "ĠTs": 10811, "ĠBand": 10812, "ĠFA": 10813, "Ġguaranteed": 10814, "apper": 10815, "Ġfert": 10816, "Ġepic": 10817, "Ġleaked": 10818, "ĠKings": 10819, "Ġpackages": 10820, "mble": 10821, "Ġpleasure": 10822, "BN": 10823, "ele": 10824, "Ġsuspension": 10825, "Ġchallenged": 10826, "Ġpacked": 10827, "good": 10828, "Ġchecking": 10829, "à¸": 10830, "Ġbits": 10831, "Ġvit": 10832, "Ġengagement": 10833, "Ġradiation": 10834, "Ġslot": 10835, "Ġbombing": 10836, "ĠHu": 10837, "Ġpatri": 10838, "leep": 10839, "Ġda": 10840, "Ġalert": 10841, "Pal": 10842, "istle": 10843, "Ġwet": 10844, "rics": 10845, "Ġhunting": 10846, "ĠUSB": 10847, "ĠTel": 10848, "riv": 10849, "Äģ": 10850, "ÃĥÃĤÃĥÃĤÃĥÃĤÃĥÃĤ": 10851, "Ġproduces": 10852, "Ġwitnesses": 10853, "ĠCraig": 10854, "ophob": 10855, "Ġeditorial": 10856, "Ġdefended": 10857, "Ġrecovered": 10858, "ĠHoly": 10859, "mented": 10860, "Ġdevelopments": 10861, "Ġsimultaneously": 10862, "Ġboom": 10863, "Ġbacteria": 10864, "ĠLog": 10865, "Ġblocking": 10866, "Right": 10867, "ĠLater": 10868, "Ġ59": 10869, "Ġattracted": 10870, "Ġ66": 10871, "Ġfigured": 10872, "ĠOpp": 10873, "Ġcorrel": 10874, "ĠHung": 10875, "Ġalliance": 10876, "Ġresearcher": 10877, "Ġtaxpayers": 10878, "ĠEntertainment": 10879, "ĠLes": 10880, "ĠNone": 10881, "Ġcaps": 10882, "card": 10883, "ĠJeremy": 10884, "Ġhosts": 10885, "Ġcinem": 10886, "Ġpatent": 10887, "ĠRussians": 10888, "izarre": 10889, "Ġexamine": 10890, "ATCH": 10891, "ĠFuture": 10892, "Ġvariables": 10893, "aste": 10894, "ĠLincoln": 10895, "ifier": 10896, "Ġoxy": 10897, "Ġembed": 10898, "--------------------------------": 10899, "Ġjunior": 10900, "lynn": 10901, "ateful": 10902, "Black": 10903, "ĠGh": 10904, "uter": 10905, "oned": 10906, "ĠChairman": 10907, "Ġpublish": 10908, "ĠTower": 10909, "JP": 10910, "Ġtear": 10911, "Ġ62": 10912, "Ġmeth": 10913, "gly": 10914, "Ġbreast": 10915, "ĠVlad": 10916, "DR": 10917, "Ġvent": 10918, "ĠPoland": 10919, "Car": 10920, "ĠUkrainian": 10921, "ĠStudies": 10922, "adesh": 10923, "gged": 10924, "dep": 10925, "Ġenact": 10926, "may": 10927, "ĠDak": 10928, "Ġflights": 10929, "omic": 10930, "Ġaccuracy": 10931, "Ġflav": 10932, "ĠBor": 10933, "ĠWi": 10934, "Ġdistribut": 10935, "Ġlos": 10936, "Ġimpacts": 10937, "ĠKit": 10938, "Ġsurprisingly": 10939, "Ġsolo": 10940, "Ġraises": 10941, "Ġburned": 10942, "Ġric": 10943, "ĠSci": 10944, "Ġangle": 10945, "secutive": 10946, "ĠWould": 10947, "Ġevac": 10948, "Ġqualified": 10949, "Ġdecrease": 10950, "ĠCPU": 10951, "oft": 10952, "nie": 10953, "vas": 10954, "Ġevolved": 10955, "Ġflavor": 10956, "olitical": 10957, "test": 10958, "Ġunnecess": 10959, "bin": 10960, "aco": 10961, "Ġassemb": 10962, "ĠTotal": 10963, "Ġintimid": 10964, "wich": 10965, "imir": 10966, "Ġcourtesy": 10967, "ĠOR": 10968, "Cor": 10969, "ERE": 10970, "Ġfingers": 10971, "ĠMPs": 10972, "rition": 10973, "Ġproductive": 10974, "Ġvoc": 10975, "Ġblamed": 10976, "etheless": 10977, "ĠHIV": 10978, "Ġdependent": 10979, "Ġexpecting": 10980, "Ġtransferred": 10981, "ĠRangers": 10982, "Ġenabled": 10983, "Ġidentical": 10984, "Ġvisits": 10985, "nan": 10986, "Ġexpects": 10987, "Ġlane": 10988, "ĠGill": 10989, "dict": 10990, "Ġignor": 10991, "ĠUb": 10992, "Ġaccord": 10993, "ĠGriff": 10994, "terror": 10995, "ishers": 10996, "Book": 10997, "ĠStewart": 10998, "Ġventure": 10999, "ĠCC": 11000, "Ġbarg": 11001, "Br": 11002, "Ġshops": 11003, "Ġdeparture": 11004, "ĠCommand": 11005, "iere": 11006, "ĠMississ": 11007, "TO": 11008, "Ġkiller": 11009, "Ġrepeal": 11010, "Ġmotivated": 11011, "Ġrestore": 11012, "Ġagreements": 11013, "ĠDu": 11014, "Ġconflicts": 11015, "Ġorganis": 11016, "thodox": 11017, "Ġscared": 11018, "Ġforgotten": 11019, "ĠThink": 11020, "iden": 11021, "icked": 11022, "ulse": 11023, "Ġinher": 11024, "Ġnationwide": 11025, "ĠEdition": 11026, "bian": 11027, "Ġcycl": 11028, "Ġinfluenced": 11029, "Ġcriteria": 11030, "ĠNi": 11031, "ernand": 11032, "Ġoccupied": 11033, "Ġanimation": 11034, "ĠBC": 11035, "Ġtrailer": 11036, "Ġranking": 11037, "ĠPope": 11038, "ĠShould": 11039, "ĠThings": 11040, "Ġ`": 11041, "Ġbacks": 11042, "ahoo": 11043, "Ġtelephone": 11044, "df": 11045, "Ġoccasion": 11046, "about": 11047, "unity": 11048, "Ġanalys": 11049, "ĠReddit": 11050, "Ġfunctionality": 11051, "Ġchecked": 11052, "Ġconcentration": 11053, "ĠModel": 11054, "looking": 11055, "Ġhouseholds": 11056, "link": 11057, "Ġreass": 11058, "onduct": 11059, "Ġalgorithm": 11060, "Ġcourage": 11061, "rah": 11062, "ressing": 11063, "ĠSupport": 11064, "oup": 11065, "Ġpromoted": 11066, "ĠHug": 11067, "Ġimprison": 11068, "aments": 11069, "Ġexplicitly": 11070, "Ġbatter": 11071, "iar": 11072, "leted": 11073, "Ġdesp": 11074, "Ġbabies": 11075, "Ġtanks": 11076, "Ġought": 11077, "Ġstatic": 11078, "ĠProduct": 11079, "Ġreleasing": 11080, "Ġantib": 11081, "ĠPlace": 11082, "rike": 11083, "Ġsubtle": 11084, "Former": 11085, "ILL": 11086, "Ġstats": 11087, "Ġbases": 11088, "Ġstrip": 11089, "Ġdoct": 11090, "large": 11091, "uating": 11092, "Gr": 11093, "Ġprivilege": 11094, "ĠJerry": 11095, "ĠMoreover": 11096, "agine": 11097, "ĠEnt": 11098, "ippi": 11099, "ĠWarner": 11100, "ĠNO": 11101, "Ġmeters": 11102, "Ġentrance": 11103, "MB": 11104, "bat": 11105, "Ġtower": 11106, "Ġinvestigated": 11107, "Three": 11108, "Ġsenators": 11109, "zone": 11110, "ĠCold": 11111, "ĠCanadians": 11112, "Ġhub": 11113, "Ġwise": 11114, "Ġoverl": 11115, "Ġapplies": 11116, "Ġformula": 11117, "ĠStandard": 11118, "ĠEb": 11119, "ollar": 11120, "ĠEgyptian": 11121, "Ġmart": 11122, "ĠChristopher": 11123, "Ġinevitable": 11124, "breaking": 11125, "Ġuncertainty": 11126, "Ġprovider": 11127, "actor": 11128, "Ġpainting": 11129, "Ġcontinu": 11130, "Ġmodest": 11131, "Ġlens": 11132, "Ġinfluential": 11133, "Ġdestination": 11134, "ĠQueens": 11135, "Ġunre": 11136, "ĠMap": 11137, "forward": 11138, "izations": 11139, "Ġchips": 11140, "being": 11141, "Supp": 11142, "Ġally": 11143, "Ġinfection": 11144, "Ġdimin": 11145, "leading": 11146, "\",\"": 11147, "ĠUnivers": 11148, "Ġjet": 11149, "kes": 11150, "Ġsolely": 11151, "Ġbelt": 11152, "Ġscrew": 11153, "Ġinaug": 11154, "Ġ63": 11155, "Ġinsist": 11156, "Good": 11157, "Yeah": 11158, "rying": 11159, "ĠTR": 11160, "ĠNiger": 11161, "Ġtheft": 11162, "uccess": 11163, "ĠMarg": 11164, "Ġpolitician": 11165, "ĠAlaska": 11166, "Ġtransparency": 11167, "ĠPlayStation": 11168, "Ġinvested": 11169, "Ġsinger": 11170, "Ġimmune": 11171, "ĠOttawa": 11172, "Ġprovisions": 11173, "istance": 11174, "ĠStock": 11175, "town": 11176, "Ġhandled": 11177, "Ġpy": 11178, "overs": 11179, "Ġuncomfort": 11180, "ampa": 11181, "ĠOlympics": 11182, "ĠLouisiana": 11183, "Ġimpressed": 11184, "Ġinbox": 11185, "ĠOil": 11186, "Ġoperator": 11187, "SD": 11188, "ardo": 11189, "untu": 11190, "ĠNetherlands": 11191, "Em": 11192, "Ġballs": 11193, "Ġtent": 11194, "ilation": 11195, "ĠJane": 11196, "non": 11197, "Ġcolleg": 11198, "Ġbol": 11199, "Ġsimilarly": 11200, "Ġlifestyle": 11201, "offs": 11202, "Ġheadlines": 11203, "idal": 11204, "Ġboards": 11205, "rifice": 11206, "?)": 11207, "ĠTrek": 11208, "comp": 11209, "Ġdisabled": 11210, "ĠKr": 11211, "thur": 11212, "ante": 11213, "ixel": 11214, "ĠStanley": 11215, "Ġoperated": 11216, "olas": 11217, "Ġregarded": 11218, "var": 11219, "ĠType": 11220, "Ġlaunching": 11221, "ĠSN": 11222, "Ġreluct": 11223, "ĠExp": 11224, "achment": 11225, "wall": 11226, "Down": 11227, "ĠMother": 11228, "Ġvolunt": 11229, "Ġphotographs": 11230, "such": 11231, "Ġkidn": 11232, "ĠDrug": 11233, "?âĢĻ": 11234, "Ġsake": 11235, "citation": 11236, "Ġkeen": 11237, "Ġdetention": 11238, "track": 11239, "rc": 11240, "Ġconsecutive": 11241, "Obama": 11242, "Ġgym": 11243, "ĠUnlike": 11244, "million": 11245, "inite": 11246, ").[": 11247, "ĠBlood": 11248, "gov": 11249, "Ġprosecutor": 11250, "Ġfilter": 11251, "ĠDa": 11252, "Ġprosecution": 11253, "keley": 11254, "Ġsuck": 11255, "oning": 11256, "anguage": 11257, "Ġconviction": 11258, "ige": 11259, "uther": 11260, "Ġearthqu": 11261, "Ġlean": 11262, "Ġrolled": 11263, "Ġkiss": 11264, "ĠTable": 11265, "armed": 11266, "ista": 11267, "Ġinex": 11268, "ĠModi": 11269, "erald": 11270, "orate": 11271, "ĠCorporation": 11272, "ĠCaption": 11273, "tarian": 11274, "ĠCorp": 11275, "bitious": 11276, "Ġbulk": 11277, "first": 11278, "ĠHampshire": 11279, "Ġmales": 11280, "ĠFO": 11281, "ĠBir": 11282, "Jo": 11283, "Ġtears": 11284, "Ġtragedy": 11285, "Ġchocolate": 11286, "Ġmouse": 11287, "Ġpoet": 11288, "Ġpreserve": 11289, "llor": 11290, "Ġguidance": 11291, "ĠFather": 11292, "ĠBeing": 11293, "ĠSche": 11294, "Ġleak": 11295, "ĠPhilippines": 11296, "Bel": 11297, "ĠForest": 11298, "urches": 11299, "Ġnu": 11300, "assion": 11301, "Ġbags": 11302, "ĠSeveral": 11303, "Ġreck": 11304, "block": 11305, "Ġdestro": 11306, "Ġexamined": 11307, "Ġsynd": 11308, "Ġaccepting": 11309, "Ġelabor": 11310, "Ġmissiles": 11311, "Ġabsurd": 11312, "rin": 11313, "Further": 11314, "Ġbeneath": 11315, "Ġneur": 11316, "Ġparticipating": 11317, "vironments": 11318, "Ġ1000": 11319, "ĠHans": 11320, "bes": 11321, "vo": 11322, "Ġneighborhoods": 11323, "ucker": 11324, "ĠStanford": 11325, "Ġcompelling": 11326, "Ġreflects": 11327, "ĠWy": 11328, "Ġcomplained": 11329, "Ġadap": 11330, "Ġbother": 11331, "Ġcontroller": 11332, "Ġluxury": 11333, "ĠVictoria": 11334, "ĠEdit": 11335, "ĠMarc": 11336, "ĠCloud": 11337, "ĠGrant": 11338, "ĠMorm": 11339, "laim": 11340, "Ġtheater": 11341, "ĠMario": 11342, "Ġenfor": 11343, "ĠNelson": 11344, "Ġshelter": 11345, "stra": 11346, "boys": 11347, "Ġfer": 11348, "ĠMedicare": 11349, "speed": 11350, "ĠTam": 11351, "Ġfits": 11352, "ĠMedicaid": 11353, "Ġjurisd": 11354, "mons": 11355, "ouses": 11356, "Ġposter": 11357, "usting": 11358, "Ġ</": 11359, "ĠKnight": 11360, "Ġconsists": 11361, "âĢĿ)": 11362, "opp": 11363, "Ġpose": 11364, "Ġsignificance": 11365, "ĠFilm": 11366, "Ġpolling": 11367, "Ġstopping": 11368, "friendly": 11369, "Ġoccasions": 11370, "Ġbone": 11371, "ĠDE": 11372, "ĠTokyo": 11373, "neg": 11374, "ĠRubio": 11375, "Ġwireless": 11376, "Ġrealistic": 11377, "Ġexcuse": 11378, "aya": 11379, "ĠLocal": 11380, "Among": 11381, "ĠImm": 11382, "Each": 11383, "ĠVin": 11384, "ĠCas": 11385, "ĠChron": 11386, "Ġtension": 11387, "Ġaccompanied": 11388, "Ġseeks": 11389, "ĠGard": 11390, "Ġbackup": 11391, "asm": 11392, "otion": 11393, "Ġresemb": 11394, "Ġmandate": 11395, "ĠSport": 11396, "Ġtheoret": 11397, "ello": 11398, "ĠContinue": 11399, "Ġassists": 11400, "Ġpossibilities": 11401, "ĠWinter": 11402, "ĠQuest": 11403, "fish": 11404, "ects": 11405, "Ġbeta": 11406, "Ġaccusations": 11407, "Ġadvent": 11408, "Ġcooking": 11409, "ĠPa": 11410, "iah": 11411, "ĠCR": 11412, "ĠChampions": 11413, "ĠAbu": 11414, "Ġsupposedly": 11415, "Ġinhab": 11416, "ĠSnowden": 11417, "Ġemphasis": 11418, "Ġfinishing": 11419, "ĠDal": 11420, "ping": 11421, "ambling": 11422, "Ġsustained": 11423, "Perhaps": 11424, "cat": 11425, "ĠMalays": 11426, "Ġbeaten": 11427, "ĠSEC": 11428, "itement": 11429, "Ġbump": 11430, "ĠPear": 11431, "Ġdressed": 11432, "Ġawards": 11433, "Ġprojected": 11434, "isms": 11435, "ĠHad": 11436, "ĠNothing": 11437, "Ġtorn": 11438, "Ġinnovative": 11439, "ĠEverything": 11440, "ĠMind": 11441, "Ġaffects": 11442, "âĶĢâĶĢ": 11443, "Ġpolar": 11444, "Ġpreventing": 11445, "Ġconstructed": 11446, "ĠFlash": 11447, "bery": 11448, "Ġlongtime": 11449, "ATION": 11450, "thal": 11451, "Following": 11452, "Ġfed": 11453, "ĠSection": 11454, "Ġfucking": 11455, "Ġeru": 11456, "Ġgarden": 11457, "Ġ360": 11458, "ĠAbd": 11459, "IO": 11460, "ĠOrganization": 11461, "Ġspeeds": 11462, "Ġoperators": 11463, "ĠSoft": 11464, "ilst": 11465, "Ġgut": 11466, "ĠFinancial": 11467, "Ġdrum": 11468, "Ġmanual": 11469, "Ġoutstanding": 11470, "Ġpassword": 11471, "Ġmortgage": 11472, "ĠKa": 11473, "ĠHamas": 11474, "Ġentity": 11475, "ĠPython": 11476, "cott": 11477, "Ġrecession": 11478, "ĠNich": 11479, "Ġwisdom": 11480, "ĠNature": 11481, "Ġdocumented": 11482, "Ġtraded": 11483, "Ġintrig": 11484, "ĠSteam": 11485, "una": 11486, "ĠIV": 11487, "Ġgolf": 11488, "ĠJimmy": 11489, "Ġoccupation": 11490, "ĠKurdish": 11491, "Ġoldest": 11492, "Ġfut": 11493, "Ġdocumentation": 11494, "Ġfavourite": 11495, "iox": 11496, "Ġpraised": 11497, "Ġresidential": 11498, "incial": 11499, "Ġspotted": 11500, "Ġcops": 11501, "Bar": 11502, "century": 11503, "ugby": 11504, "Ġrevenues": 11505, "ĠCommons": 11506, "ĠThird": 11507, "Ġlayers": 11508, "Ġwalks": 11509, "olitan": 11510, "ĠMA": 11511, "Ġinteractions": 11512, "ĠPatriots": 11513, "Ġsurge": 11514, "charg": 11515, "Ġbicy": 11516, "Ġawful": 11517, "Ġpanels": 11518, "Ġther": 11519, "Ġcalculated": 11520, "Ġinfant": 11521, "Ġcircuit": 11522, "cular": 11523, "DC": 11524, "Ġ67": 11525, "Ġexperimental": 11526, "âĤ¬": 11527, "rons": 11528, "Ġrenewable": 11529, "Ġautomatic": 11530, "ĠCL": 11531, "Ġmysterious": 11532, "Ġdirty": 11533, "anyahu": 11534, "Ġtrains": 11535, "ĠOthers": 11536, "ĠLad": 11537, "Ġthreshold": 11538, "Ġtale": 11539, "ques": 11540, "ĠNash": 11541, "Ġ68": 11542, "ĠKal": 11543, "Ġdealt": 11544, "ĠRh": 11545, "gal": 11546, "Ġreviewed": 11547, "Ġ61": 11548, "âĸĪ": 11549, "lied": 11550, "Ġpainful": 11551, "Ġglobe": 11552, "ĠCitiz": 11553, "omer": 11554, "Ġcoin": 11555, "irs": 11556, "Ġtrips": 11557, "ĠTrue": 11558, "ĠAirport": 11559, "requ": 11560, "ĠWayne": 11561, "Ġcleared": 11562, "err": 11563, "ĠFle": 11564, "Ġearnings": 11565, "arded": 11566, "~~": 11567, "Ġcrossed": 11568, "Ben": 11569, "Ġadministrative": 11570, "Ġconvenient": 11571, "Ġgraphic": 11572, "Ġriders": 11573, "ĠEmer": 11574, "ĠNik": 11575, "Ġlady": 11576, "Ġliberty": 11577, "Ġranging": 11578, "Ġbizarre": 11579, "Ġpour": 11580, "Ġiter": 11581, "uto": 11582, "ĠBah": 11583, "Ġhes": 11584, "former": 11585, "Ġdisplays": 11586, "Ġiconic": 11587, "Ġenvironments": 11588, "Ġrobots": 11589, "Ġmothers": 11590, "China": 11591, "Ġhosting": 11592, "Ġambitious": 11593, "Mart": 11594, "Ġ1988": 11595, "owder": 11596, "seless": 11597, "Ġdesert": 11598, "beat": 11599, "Ġreserve": 11600, "Ġsecular": 11601, "Mon": 11602, "Ġsentiment": 11603, "Ġpredec": 11604, "ĠMcDonald": 11605, "Ps": 11606, "uri": 11607, "jamin": 11608, "isive": 11609, "Only": 11610, "Ġconverted": 11611, "ĠClimate": 11612, "Ġtissue": 11613, "Id": 11614, "ĠMurphy": 11615, "ĠLarry": 11616, "Ġorg": 11617, "Ġtum": 11618, "ĠAFP": 11619, "ĠFOR": 11620, "Ġdrops": 11621, "ĠSin": 11622, "ĠDeep": 11623, "shore": 11624, "Did": 11625, "Ġexploit": 11626, "ĠPi": 11627, "ĠDean": 11628, "ori": 11629, "words": 11630, "ĠReds": 11631, "ĠSummer": 11632, "kind": 11633, "Ġcreator": 11634, "Ġresort": 11635, "count": 11636, "Ġaddressing": 11637, "ĠVar": 11638, "Ġanch": 11639, "Ġsons": 11640, "Ġsafely": 11641, "Ġhiding": 11642, "Ġattorneys": 11643, "Ã¥": 11644, "Ġdevastating": 11645, "DE": 11646, "EMENT": 11647, "two": 11648, "Ġspray": 11649, "Ġsleeping": 11650, "uably": 11651, "Ġcrossing": 11652, "Ġpension": 11653, "ĠSac": 11654, "Ġrestricted": 11655, "Ġarrests": 11656, "Ġwore": 11657, "Ġscrutiny": 11658, "ĠPir": 11659, "ICE": 11660, "uj": 11661, "Ġunfortunately": 11662, "puter": 11663, "Ġburst": 11664, "Ġlibraries": 11665, "Ġdepartments": 11666, "Ġmurdered": 11667, "Ġcompetitors": 11668, "ĠDrive": 11669, "Ġwhis": 11670, "Ġalign": 11671, "Ġcontainer": 11672, "pin": 11673, "Ġavailability": 11674, "Ġnewsletters": 11675, "Ġfiling": 11676, "ĠSingh": 11677, "kward": 11678, "Ġadoption": 11679, "ailing": 11680, "Ġnewspapers": 11681, "Ġmisc": 11682, "oj": 11683, "atter": 11684, "Ġproductivity": 11685, "Ġtoss": 11686, "bet": 11687, "Ġreign": 11688, "Ġbuilds": 11689, "ĠSE": 11690, "Ġdiscrimin": 11691, "Ġpregnancy": 11692, "ĠNS": 11693, "celona": 11694, "Ġovernight": 11695, "Ġindication": 11696, "Ġappearing": 11697, "Ġpublisher": 11698, "Ġearning": 11699, "ighting": 11700, "arians": 11701, "Ġcombine": 11702, "Ġviewing": 11703, "Ġduties": 11704, "ASH": 11705, "oyd": 11706, "ĠManning": 11707, "Ġfishing": 11708, "map": 11709, "Ġreflected": 11710, "isode": 11711, "arios": 11712, "Ġuncomfortable": 11713, "ĠMagazine": 11714, "Ġtu": 11715, "ĠWhit": 11716, "Ġregret": 11717, "government": 11718, "Ġmunicipal": 11719, "ĠFurthermore": 11720, "named": 11721, "ĠTan": 11722, "Check": 11723, "gence": 11724, "data": 11725, "ĠNative": 11726, "agu": 11727, "dev": 11728, "Ġhorrible": 11729, "accept": 11730, "bably": 11731, "Ġchemicals": 11732, "Ġrelie": 11733, "Ġanonym": 11734, "Ġcave": 11735, "oop": 11736, "Ġseparated": 11737, "Maybe": 11738, "uels": 11739, "Ġsophisticated": 11740, "World": 11741, "Ġrivals": 11742, "Ġrewards": 11743, "ĠFig": 11744, "oria": 11745, "Ġviable": 11746, "Ġdeserves": 11747, "Ġpricing": 11748, "eller": 11749, "Ġacted": 11750, "ĠPhys": 11751, "ĠWiki": 11752, "Ġrelatives": 11753, "Ġindu": 11754, "ĠMand": 11755, "Ġwinners": 11756, "Ġrecept": 11757, "ĠMadrid": 11758, "Ġslide": 11759, "Ġpreparation": 11760, "Ġequipped": 11761, "version": 11762, "Ġritual": 11763, "Ġlimitations": 11764, "ĠChrome": 11765, "ernel": 11766, "ĠInn": 11767, "Ġ1984": 11768, "Ġcomplexity": 11769, "Ġamongst": 11770, "ĠRonald": 11771, "Ġ==": 11772, "Ġmechanisms": 11773, "Ġpeer": 11774, "Ġcommod": 11775, "lesh": 11776, "Ġparameters": 11777, "ĠFederation": 11778, "Ġfirearms": 11779, "Ġcarrier": 11780, "Ġbip": 11781, "Ġtob": 11782, "ĠNaz": 11783, "Ġsuggestions": 11784, "size": 11785, "ĠHeart": 11786, "iors": 11787, "ĠNa": 11788, "Ġdelayed": 11789, "ĠHTML": 11790, "ĠBlu": 11791, "Ġexploring": 11792, "Ġmeets": 11793, "winning": 11794, "Ġtoug": 11795, "Ġ1986": 11796, "Ġcoord": 11797, "ĠTaiwan": 11798, "Ġlighting": 11799, "Ġcurve": 11800, "Ġstartup": 11801, "ĠCollins": 11802, "emit": 11803, "Ġintelligent": 11804, "Unfortunately": 11805, "Ġghost": 11806, "Ġcelebrated": 11807, "ĠMississippi": 11808, "Ġabund": 11809, "Ġcease": 11810, "arer": 11811, "Ġinterven": 11812, "/.": 11813, "Ġquietly": 11814, "Ġensuring": 11815, "ĠPoll": 11816, "ĠDomin": 11817, "XX": 11818, "ATED": 11819, "burn": 11820, "Ġrebel": 11821, "ĠLuke": 11822, "Ġnights": 11823, "Ġmm": 11824, "quer": 11825, "Ġcollecting": 11826, "2011": 11827, "Ġtranslation": 11828, "Ġworlds": 11829, "Ġdetained": 11830, "Ġorange": 11831, "ĠMcCon": 11832, "profile": 11833, "DAY": 11834, "Ġbeef": 11835, "Ġemployer": 11836, "ĠDVD": 11837, "ĠLevel": 11838, "Pat": 11839, "acies": 11840, "Ġradar": 11841, "ĠSex": 11842, "White": 11843, "Ġinstallation": 11844, "ĠBlock": 11845, "Ġdelivering": 11846, "Ġdesignated": 11847, "Ġcoins": 11848, "Michael": 11849, "emin": 11850, "Ġmigration": 11851, "Ġdebates": 11852, "Ġ);": 11853, "THE": 11854, "oda": 11855, "Ġpledge": 11856, "ĠMelbourne": 11857, "Ġcatast": 11858, "ĠEC": 11859, "Ġgrants": 11860, "Ġcaution": 11861, "Ġoffseason": 11862, "Ġnotably": 11863, "RO": 11864, "Ġbugs": 11865, "Ġtablet": 11866, "hyth": 11867, "Ġthemes": 11868, "uates": 11869, "ĠExpress": 11870, "Ġwrap": 11871, "natural": 11872, "Ġgolden": 11873, "Ġdelegates": 11874, "Advertisements": 11875, "Att": 11876, "Ġcourses": 11877, "âĢ³": 11878, "Ġcountless": 11879, "ĠEagles": 11880, "ĠDisc": 11881, "ĠBab": 11882, "Ġwitnessed": 11883, "Ġgradually": 11884, "ĠQuebec": 11885, "alid": 11886, "Ġcommands": 11887, "ĠCuba": 11888, "code": 11889, "ĠCoalition": 11890, "Ġtends": 11891, "Ġviolated": 11892, "Ġmeanwhile": 11893, "ected": 11894, "Ġpsychiat": 11895, "media": 11896, "ĠOw": 11897, "Ġdemonstration": 11898, "pot": 11899, "Ġdemo": 11900, "ĠCrit": 11901, "ĠPod": 11902, "formance": 11903, "Ġcommentary": 11904, "witzer": 11905, "ĠSwedish": 11906, "Ġannually": 11907, "Ġforb": 11908, "Ġpending": 11909, "onds": 11910, "ĠHeat": 11911, "ĠEve": 11912, "Ġobservations": 11913, "Ġthro": 11914, "orical": 11915, "athon": 11916, "ĠSaint": 11917, "oples": 11918, "ersion": 11919, "arently": 11920, "ĠToy": 11921, "arma": 11922, "Ġremembered": 11923, "Ġfires": 11924, "Ġquestioning": 11925, "rencies": 11926, "Ġcorn": 11927, "ĠSmart": 11928, "FS": 11929, "ĠNap": 11930, "Ġlaptop": 11931, "fi": 11932, "Ġverify": 11933, "Ġimpose": 11934, "Ġhighlighted": 11935, "Ġreplacing": 11936, "rup": 11937, "Ġseeds": 11938, "ĠLady": 11939, "Ġcontents": 11940, "Ġhunt": 11941, "Ġpreview": 11942, "elcome": 11943, "Media": 11944, "founder": 11945, "Ġfrustration": 11946, "ĠMarshall": 11947, "Ġdiscipline": 11948, "Ġpatrol": 11949, "Ġsupplement": 11950, "Ġpoorly": 11951, "onda": 11952, "udeau": 11953, "Ġcomed": 11954, "Ġgrave": 11955, "ĠProgress": 11956, "Ġpraise": 11957, "Ġtempt": 11958, "ĠPeace": 11959, "ĠArts": 11960, "Ġfurn": 11961, "Ġbathroom": 11962, "ĠPel": 11963, "rait": 11964, "piece": 11965, "Ġactress": 11966, "Ġaspir": 11967, "Ġhappiness": 11968, "ĠKy": 11969, "Ġexploration": 11970, "Ġgentle": 11971, "ĠRound": 11972, "omach": 11973, "Ġcruel": 11974, "ĠLions": 11975, "Ġstarter": 11976, "outing": 11977, "ĠHunter": 11978, "Ġprevented": 11979, "ĠBlake": 11980, "Ġchamber": 11981, "file": 11982, "ĠLen": 11983, "ĠWard": 11984, "Ġprayer": 11985, "Min": 11986, "Ġcultiv": 11987, "ĠStorm": 11988, "Ġvenue": 11989, "Ġpermitted": 11990, "Ġinstantly": 11991, "Ġoxygen": 11992, "War": 11993, "ĠHuff": 11994, "Ġaltogether": 11995, "urities": 11996, "Republic": 11997, "Ġbonds": 11998, "atal": 11999, "Ġambassador": 12000, "ĠBeat": 12001, "ĠMotor": 12002, ".),": 12003, "Ġarena": 12004, "ugs": 12005, "Ġconced": 12006, "ĠBerkeley": 12007, "Ġdisappeared": 12008, "Ġplanes": 12009, "Ġ76": 12010, "Ġtechnological": 12011, "string": 12012, "ĠAy": 12013, "shot": 12014, "ierre": 12015, "Ġsuggestion": 12016, "aman": 12017, "ĠRoger": 12018, "Ġpartially": 12019, "Ġagriculture": 12020, "anches": 12021, "Ġunl": 12022, "Ġdil": 12023, "Ġdrinks": 12024, "ĠCampbell": 12025, "ĠFergus": 12026, "flow": 12027, "Ġsizes": 12028, "Ġincorrect": 12029, "Twitter": 12030, "Ġprotections": 12031, "ĠFR": 12032, "hill": 12033, "Ġfascinating": 12034, "group": 12035, "ĠAmb": 12036, "ocur": 12037, "ĠEnvironmental": 12038, "ĠHann": 12039, "ĠChristianity": 12040, "Ġvaccine": 12041, "ĠHawaii": 12042, "ĠAdditionally": 12043, "Ġlogical": 12044, "ĠMas": 12045, "Ġparks": 12046, "ĠMuch": 12047, "aucus": 12048, "Ġstyles": 12049, "Ġsupporter": 12050, "Ġhonestly": 12051, "Ġadj": 12052, "Ġalike": 12053, "ĠLaur": 12054, "appropriate": 12055, "ĠNCAA": 12056, "Ġprol": 12057, "Ġtobacco": 12058, "Ġmarginal": 12059, "encer": 12060, "Ġtoll": 12061, "Ġsummary": 12062, "ttes": 12063, "ologically": 12064, "Ġflew": 12065, "ĠGene": 12066, "ĠKickstarter": 12067, "Ġadvised": 12068, "Ġhearts": 12069, "Ġcompr": 12070, "Ġsinging": 12071, "Leaks": 12072, "Ġwound": 12073, "Their": 12074, "Ġappointment": 12075, "ĠQual": 12076, "ĠForces": 12077, "ĠCongressional": 12078, "Ġethics": 12079, "Ġstunning": 12080, "ĠJen": 12081, "esides": 12082, "Ġcapability": 12083, "ĠMitchell": 12084, "ĠGab": 12085, "Ġtransmission": 12086, "Ġenterprise": 12087, "ĠCry": 12088, "ĠVladimir": 12089, "Ġmetaph": 12090, "chron": 12091, "ĠSpeaker": 12092, "Ġprosper": 12093, "Ġpowered": 12094, "ĠManager": 12095, "Ġreactions": 12096, "ĠEditor": 12097, "Ġessay": 12098, "Ġelectrical": 12099, "Ġcous": 12100, "pling": 12101, "Ġstressed": 12102, "Ġhaz": 12103, "bu": 12104, "py": 12105, "ĠTodd": 12106, "Ġfaculty": 12107, "ĠGre": 12108, "Ġmakers": 12109, "ĠCorps": 12110, "Ġash": 12111, "ĠArena": 12112, "Ġceiling": 12113, "Ġsket": 12114, "Ġderived": 12115, "ĠReid": 12116, "last": 12117, "Ġseventh": 12118, "sk": 12119, "ĠName": 12120, "ivan": 12121, "Ġmountains": 12122, "Ġcelebration": 12123, "Ġrice": 12124, "Ġpressing": 12125, "Ġarguably": 12126, "Ġdrafted": 12127, "Ġcrown": 12128, "Ġdamn": 12129, "lected": 12130, "Ġdepos": 12131, "Ġraid": 12132, "ĠJess": 12133, "ĠRT": 12134, "ĠOrange": 12135, "ĠUI": 12136, "NT": 12137, "ĠBenn": 12138, "utt": 12139, "Ġendless": 12140, "Fe": 12141, "Ġtraveled": 12142, "Ġcomplain": 12143, "UD": 12144, "ĠImp": 12145, "Ġdrones": 12146, "ĠSessions": 12147, "ĠCommissioner": 12148, "ĠOxford": 12149, "TIS": 12150, "Ġineff": 12151, "ĠBrus": 12152, "ĠRow": 12153, "gments": 12154, "Ġawkward": 12155, "Ġbund": 12156, "orer": 12157, "witzerland": 12158, "Ġapplying": 12159, "ĠWatson": 12160, "Ġsacrifice": 12161, "Ġaccomplished": 12162, "Ġshooter": 12163, "gary": 12164, "dam": 12165, "('": 12166, "Ġbubble": 12167, "Ġweaken": 12168, "ults": 12169, "Take": 12170, "ĠFlynn": 12171, "Ġepid": 12172, "onia": 12173, "Ġmechanics": 12174, "Ġassumption": 12175, "aughters": 12176, "Ġadvocacy": 12177, "Ġcats": 12178, "ims": 12179, "Ġhostile": 12180, "Ġbreach": 12181, "Ġrevealing": 12182, "BL": 12183, "Ġfract": 12184, "Ġrespective": 12185, "handed": 12186, "Ġscratch": 12187, "Have": 12188, "storm": 12189, "ĠModern": 12190, "Several": 12191, "atin": 12192, "Ġexpertise": 12193, "ĠDakota": 12194, "Ġdevoted": 12195, "Second": 12196, "hol": 12197, "atoes": 12198, "ĠParker": 12199, "ĠIndians": 12200, "ĠBaker": 12201, "bie": 12202, "Ġanarch": 12203, "Ġcircles": 12204, "mare": 12205, "Ġstrongest": 12206, "ĠRap": 12207, "ĠChall": 12208, "written": 12209, "Ġfocuses": 12210, "formed": 12211, "ipher": 12212, "Ġshocking": 12213, "Ġsword": 12214, "Ġcalendar": 12215, "uez": 12216, "Ġaudiences": 12217, "Ġmic": 12218, "oard": 12219, "Ġlone": 12220, "ĠKas": 12221, "Ġcitizenship": 12222, "Ġbuyers": 12223, "agraph": 12224, "Ġconfirmation": 12225, "ĠMedicine": 12226, "uming": 12227, "WS": 12228, "Eng": 12229, "Ġtrucks": 12230, "Ġlung": 12231, "Ġparticles": 12232, "idth": 12233, "Ġfrank": 12234, "Ġacquisition": 12235, "Ġconclusions": 12236, "vol": 12237, "Ġcomputing": 12238, "Ġsauce": 12239, "âĦ": 12240, "Bre": 12241, "ĠLawrence": 12242, "uerto": 12243, "Ġunnecessary": 12244, "Ġdirectors": 12245, "mid": 12246, "Data": 12247, "Ġlyr": 12248, "ĠDate": 12249, "Ġlineback": 12250, "Ġ700": 12251, "actory": 12252, "Ġpenalties": 12253, "tit": 12254, "Ġdecor": 12255, "itate": 12256, "half": 12257, "Ġspy": 12258, "Ġlongest": 12259, "GM": 12260, "lli": 12261, "Ġresponding": 12262, "ĠTemple": 12263, "matic": 12264, "liver": 12265, "vious": 12266, "nor": 12267, "2010": 12268, "Hist": 12269, "itivity": 12270, "anded": 12271, "ĠFind": 12272, "Ġbitter": 12273, "ĠED": 12274, "Men": 12275, "brew": 12276, "Ġstir": 12277, "ĠResp": 12278, "ĠHus": 12279, "ocus": 12280, "byn": 12281, "Ġhistorically": 12282, "Ġentities": 12283, "ĠMorris": 12284, "atre": 12285, "Ġadvertisement": 12286, "Ġinterrupt": 12287, "ĠDor": 12288, "Ġaddiction": 12289, "Ġyard": 12290, "Ġbears": 12291, "Ġplacing": 12292, "ĠYang": 12293, "Ġcontributing": 12294, "Ġboundaries": 12295, "Ġgreet": 12296, "Ġqualify": 12297, "stan": 12298, "ĠFerguson": 12299, "Ġunderstands": 12300, "Ġcomposition": 12301, "Ġduration": 12302, "?'": 12303, "Ġquantum": 12304, "jan": 12305, "borne": 12306, "ĠHotel": 12307, "umm": 12308, "Ġconversion": 12309, "km": 12310, "Ġshake": 12311, "Ġfrustrated": 12312, "ÙĦ": 12313, "Ġcoordinator": 12314, "ĠLegisl": 12315, "Ġoperates": 12316, "Med": 12317, "Ġorientation": 12318, "Ġhacking": 12319, "zes": 12320, "ĠSafety": 12321, "ĠProm": 12322, "ĠBarcelona": 12323, "PI": 12324, "sur": 12325, "MM": 12326, "Ġstun": 12327, "Ġcam": 12328, "Inter": 12329, "Given": 12330, "ĠRoc": 12331, "ĠRecords": 12332, "di": 12333, "Ġpriest": 12334, "Ġfeminist": 12335, "lements": 12336, "ĠHispan": 12337, "acular": 12338, "ĠJacob": 12339, "Big": 12340, "Ġ1987": 12341, "andy": 12342, "Ġdistant": 12343, "Ġmotivation": 12344, "Ġfastest": 12345, "ĠSud": 12346, "Ġtar": 12347, "minded": 12348, "Ġgrocer": 12349, "Ġpainted": 12350, "boards": 12351, "Ġpopul": 12352, "ĠIan": 12353, "Set": 12354, "ĠNetanyahu": 12355, "âĢĭ": 12356, "outheast": 12357, "Ġpedest": 12358, "La": 12359, "ĠFCC": 12360, "liminary": 12361, "connect": 12362, "ĠRain": 12363, "Ġnode": 12364, "IST": 12365, "Ġdensity": 12366, "ĠUC": 12367, "PDATE": 12368, "Ġoversight": 12369, "Ġtunnel": 12370, "Ġexperiencing": 12371, "ĠRy": 12372, "Ġcontrolling": 12373, "fs": 12374, "Ġcounties": 12375, "orph": 12376, "Ġmild": 12377, "Ġsafer": 12378, "ĠHend": 12379, "tech": 12380, "ĠSong": 12381, "Ġtill": 12382, "Ġvague": 12383, "Ġ1979": 12384, "Ġdivide": 12385, "ĠFif": 12386, "prot": 12387, "ĠSwiss": 12388, "ĠBE": 12389, "abling": 12390, "Ġtransformation": 12391, "Ġdirections": 12392, "ĠBart": 12393, "asted": 12394, "dec": 12395, "Ġreceives": 12396, "Ġsentences": 12397, "Ġimperial": 12398, "leton": 12399, "Â·": 12400, "Figure": 12401, "mart": 12402, "Ġugly": 12403, "Ġsla": 12404, "Ġsuprem": 12405, "Ġillegally": 12406, "comed": 12407, "Ġprobability": 12408, "acer": 12409, "Ġintensity": 12410, "Ġcomposed": 12411, "Euro": 12412, "Ġenjoying": 12413, "ĠCos": 12414, "ĠAbbott": 12415, "western": 12416, "Ġheaven": 12417, "Ġdign": 12418, "supp": 12419, "ĠSide": 12420, "Ġmandatory": 12421, "specific": 12422, "ACK": 12423, "Ġconservation": 12424, "Ġachievement": 12425, "Ġgaining": 12426, "Har": 12427, "ĠRemember": 12428, "ĠBloomberg": 12429, "Par": 12430, "ryption": 12431, "Ġinsane": 12432, "ĠAgainst": 12433, "Ġagricultural": 12434, "Ġpor": 12435, "ding": 12436, "Ġbalanced": 12437, "Ġ69": 12438, "Ġcondemned": 12439, "Ġstomach": 12440, "Ġ1985": 12441, "Ġresidence": 12442, "Ġdistinction": 12443, "ĠLie": 12444, "Ġprinting": 12445, "Ġpione": 12446, "Ġemerge": 12447, "Ġprototype": 12448, "mother": 12449, "ĠBeng": 12450, "ĠCa": 12451, "ĠBlog": 12452, "Ġwings": 12453, "health": 12454, "Ġspacecraft": 12455, "Ġinvesting": 12456, "ÂĶ": 12457, "Ġacceptance": 12458, "Ġ77": 12459, "Ġtouched": 12460, "ĠRice": 12461, "Ġtune": 12462, "Ġzomb": 12463, "Ġtoile": 12464, "ĠTea": 12465, "Ġinitiatives": 12466, "ĠBuilding": 12467, "Ġexchanges": 12468, "otypes": 12469, "Ġscary": 12470, "Ġpays": 12471, "ayed": 12472, "deg": 12473, "main": 12474, "ĠDJ": 12475, "Ġideological": 12476, "Ġpink": 12477, "orient": 12478, "Ġscenarios": 12479, "idding": 12480, "Ġfilling": 12481, "Ġmanufacturer": 12482, "ĠBenjamin": 12483, "ĠBeh": 12484, "---": 12485, "ĠStein": 12486, "ĠTampa": 12487, "ĠEvans": 12488, "ĠElection": 12489, "roc": 12490, "Ġserial": 12491, "âĦ¢": 12492, "Ġinfring": 12493, "Ġconstrain": 12494, "ocker": 12495, "Ġrotation": 12496, "lamm": 12497, "Ġrespected": 12498, "ĠMcM": 12499, "when": 12500, "ĠKu": 12501, "ĠDraft": 12502, "abbing": 12503, "Ġpressed": 12504, "Ġoverd": 12505, "Ġnonprofit": 12506, "Ġpeers": 12507, "because": 12508, "Ġacquire": 12509, "Ġcake": 12510, "Ġoperational": 12511, "Ġincomp": 12512, "Ġcrops": 12513, "Ġlanes": 12514, "abetes": 12515, "initely": 12516, "UTERS": 12517, "Ġcompletion": 12518, "ĠLaure": 12519, "Ġhighway": 12520, "Ġtreating": 12521, "umbled": 12522, "Ġpriorities": 12523, "gt": 12524, "Ġsubsidies": 12525, "Ġexplosive": 12526, "Ġanimated": 12527, "Ġresigned": 12528, "econom": 12529, "chi": 12530, "Ġears": 12531, "ortunate": 12532, "Ġslavery": 12533, "Ġdifficulties": 12534, "ĠArctic": 12535, "ĠKl": 12536, "usters": 12537, "ĠMobile": 12538, "Ġislands": 12539, "ĠCohen": 12540, "auc": 12541, "ĠÂ©": 12542, "story": 12543, "Ġfreely": 12544, "Ġchurches": 12545, "ĠChance": 12546, "whe": 12547, "ockets": 12548, "Ġshorter": 12549, "Ġfright": 12550, "owell": 12551, "Ġformally": 12552, "Ġapprove": 12553, "Ġreserves": 12554, "Ġtel": 12555, "Ġdesired": 12556, "Ġrifle": 12557, "Ġquotes": 12558, "ĠGa": 12559, "ĠRio": 12560, "Ġrespondents": 12561, "Ġexem": 12562, "Ġparticipated": 12563, "ĠBrandon": 12564, "Ġbones": 12565, "Ġdisclosure": 12566, "think": 12567, "zb": 12568, "Ġbio": 12569, "ĠFigure": 12570, "ĠRail": 12571, "ridge": 12572, "mn": 12573, "ĠAwards": 12574, "Ġcrowds": 12575, "Ġ1930": 12576, "Ġhumanitarian": 12577, "Ġworthy": 12578, "Ġvolunteer": 12579, "ĠText": 12580, "Ġsher": 12581, "icut": 12582, "Ġmechanical": 12583, "Ġtutorial": 12584, "valid": 12585, "erer": 12586, "ĠÃĹ": 12587, "Ġclever": 12588, "Ġsecured": 12589, "Ġhier": 12590, "Ġjudicial": 12591, "oons": 12592, "Ġattributed": 12593, "Ġrumors": 12594, "Ġconj": 12595, "Ġmamm": 12596, "Ġcrude": 12597, "charge": 12598, "ĠSaints": 12599, "Ñı": 12600, "Ġmonetary": 12601, "Ġdeliberately": 12602, "ĠCentury": 12603, "();": 12604, "ĠFro": 12605, "abl": 12606, "icts": 12607,
[...]
